3D55D959
3E0904B6
BC7B6C3A
3C97D547
3CF0BB6B
BC987AED
BD8180E8
3D1D701D
3E83C70D
3E6DCB76
BBB11836
3DCD398F
BD8571AA
BD5D41C4
3DD84BC1
BDA84E75
BD9FA105
3D0E86F3
BCDE1A9E
BC133CA7
BD6F85EC
BC93EA1E
3DAF3BCD
BDA24E4B
3DA89793
3ACF4F03
3DF15E6B
3C8F5956
3DCD1329
3CAE2303
3DDBB363
3D97AC7A
3B312046
BDA454F9
3DBD7126
3DB2E05D
BB7CD4CA
3D2B1301
3D4064DF
3DD02F4D
3DC6DAD6
BD248352
BD4162BD
BB0217C1
BD44D1EB
BC956CC0
3D112C78
BD1934AF
3DCA42D6
3DFC7529
3D0D72BA
3DC49CCC
BCF8FD06
3D92625A
B9939939
BBFC999E
BD6A1983
3D51F48E
BD2F76AC
3DB273B8
BD86CF66
BD982D0B
BD463568
3D837008
3D51FBDF
BDA75C00
BCD6E318
BD9EFC98
BDEEE236
BDCE8C38
BDF76D4F
3D683DAE
3D20074D
BD9B7A1A
3CF575A3
BCC53D6F
BC75B20D
BE175034
BDA0ACBA
BDF5C23F
BE0A6A67
3CF695BD
BC059F3B
3D8949EE
BE3B1EAC
BDE3BD13
BE037DA7
BD7E4EB3
3CD00056
BDA3CD8B
BDB55DC2
BDA4EC6F
BD3A582F
BDDDF6C6
BE34212D
3CABA53C
BE147D61
3DAF65A9
BB8BEC3E
BCA26E6E
BCACB262
BD8B5508
BD3A965E
3CBFD0EB
3CDBC47B
3D802E37
3C6A576E
3D8FE341
BE088E10
BACA7DC6
3DB1582E
3DBE20F4
3D987654
BD2E135C
3B0AF30E
BC3AE06B
BDF6CD1B
BDE5D9A0
3CBFD914
BDE8E0A4
3DA12CA3
BD820E0C
3DE7E77D
3D50BED5
3D42ED25
BDE1A5BF
B9FC05F3
BD80530E
BD50DD34
BE02BF8D
BC573894
BC9B1772
3CC7FBB4
3CCA3B9B
3D02DE5B
BE1BAE6A
BC6B7DA3
BC5BA6C5
3CC70F7B
BD7BB3F1
BD8263F2
3C3DCCCD
BCF19576
BD08DFF7
BDA5A4BD
3DB477B9
BC9948A2
3C44CF9B
3DC5761F
3D2AF53F
BDCA6720
3D8367FD
3CC81B20
BD6873DD
BD82EE94
BDF30ECE
3D8BE853
BDCDEED5
3BB9F306
3D7A44CA
BD582AAB
3DAB1985
3D2CB539
3C1EFD65
3D2F8A67
3D870DB1
BCCCF70C
3C8A920B
3C80E97C
3D9184B3
BD33F46F
3C79111E
3C4E2A30
BDA59278
BDB6EE24
3DF9C692
BD3C1135
3D849D9A
3C26AA0C
3D3D691F
3D5C6FE0
3DA54EA6
3D055B03
BD0BCA7C
3B7B5D68
BCDE97FD
3DE44CBC
3D4DF014
BD705DDA
3B9F7003
BD482DC0
BD72FA4C
3DAB99C1
BD8867F5
BCD66403
3D0F448D
BB0E9FF5
3DA0905C
3D96AE21
3E39E69C
3E3887C5
3DCBE134
3D1F4BF2
3C6D3C13
3D802990
3C9C07BF
3CAF733D
3D04E78F
3B6551AD
3D9100E8
BC6E37E8
3D862C23
BDA44B93
3D7CF89B
3D509C01
3B67F7DE
BD8A77FC
3DFD6BB9
3D8A7AB3
3D94402A
3D7D8A16
3CEB547E
3D27EB2D
BD4DFB58
BD97BBDE
3D9B1F3C
BC5E6B6F
BC77A131
BDC32C84
3D971F2D
3B237904
BD458BE1
BDF5B64A
3A71270F
3DBCCF87
BD198273
BD3E544E
BD06EE75
3DB6BDAD
BCFE1F99
BDD0F85A
BC0D9F8A
3BB2538F
BCA76F70
BD9B2D8C
3D78B171
BD7A15E4
3C8D11BD
3D28973D
BD7F1015
3DF535D3
BC64568F
BD5BA9E9
BD1DF298
3D96F4AD
3D88AEA4
3C17016F
BDBE191D
3D97C0C0
3D20EE3B
BD111CB2
BD59C49E
3CC5BF1C
3C9CD37B
3DDDB105
BD867AB8
3DC2C743
3D628DB2
3CC0F0B2
3AD654E2
3C74B677
3D9D8735
3D8DB106
BC097033
BDBF30C8
BD93174E
3DE9BE83
3DC467A1
3D9DA2A2
BC4B0517
BDA0EB47
3DE2D661
BCCCA821
3CC1607D
3CE6D9EE
3C928D83
BD02FAF0
3D14E381
3DCF2152
3DF7CAAB
BD8BF4BB
BD9901F6
3D4E9A76
3B6FD458
3C7F10F5
BD8428B1
BBC1A284
3DD76261
BCDFEDBA
BDBD93DA
BD7CF643
3DE2F8A9
3B886C64
3DB6D3E2
3DBA81B4
BDB5E69D
BDAD7D68
3D3DD678
3DE90FA8
BD8C220E
BD3BA6BD
BD87DC59
BCD40C7E
BCBD1F1D
3D556447
BC95D088
BCFAAA16
3D9145EC
3BB08B6A
3D32527B
3DBE55E7
BDB4F80F
BD2429BD
BD7D48B6
3DE6D123
BC2F4F4F
3D6242A0
3DA5E498
3CE645A5
3DF2F162
3DB8A0CC
3E048C10
3E0B92F6
BD856693
3D00DC0F
BB8EFAB4
3CF47AD5
3D31EEB4
BC8EEC9F
BD8088AC
3D77A537
BDB18CF9
3DC51D4A
3D9C26CD
3DB439AE
BD82CB31
3D20D03D
BCD03037
BD3BB498
BD01D7E1
3DD11F01
3E09A519
BC93A645
3D9D56FB
BC38D041
BC59D46D
3D196099
39C26984
3D3187CC
3D3BBC4E
3DE2376B
BC94E30F
BD5B58FE
3D2BA33E
3CBD5B6A
3CCD4E7A
BD8BDD59
3C3D65D8
BDB11FFB
3CE2188B
3BF008B6
3DABE120
3D25F2BF
BC58A0F1
3D2F7893
3C8C3EDA
3D761B36
BD442916
3DB2044F
3DC716E0
BB8A58F0
3D321B91
BC0B9AD0
3D22BBC9
3DDEEA02
3DE33D6A
3DB14BD1
3B3CB702
3D890B1B
BD831CA8
BD31ABC3
3E5E218D
3DA73602
3D1511B0
3D0F1AE1
BCD25A57
3D68A6F9
BB19EE53
3C640E60
3D612975
3DD08766
BD18658E
BC525F5B
3DABBC0A
3DC3FD22
3DD48496
BD609DF5
3DDE12F1
BDAD07CC
3C94394D
BDA0DCDE
3DB5F7DF
3E0B18B0
3DF6E43A
3D3CF1E3
3D902636
3C9A281B
3CCD2BEB
BD34949A
BC6D5471
BDBBE284
3D95007E
BBA3056A
BDC0E74C
BD8F4E3A
BCF88C6C
BD8082BF
3D8B009F
BD40843B
3DCB9201
BD6CE91A
3CA45966
3D0BAFBE
3DBEF9BB
BDAFE1E6
3CB0D887
3DD78AAE
3D9A5B29
BC183C95
3CD036AC
3DEF6D0F
3C8C21EF
3E0B7D34
3DD8E450
BC718167
3D4682AD
3DE47C8B
3CB5865F
3D8464F4
BDA9DA40
3DA6D9E8
3D88BE67
3C8D0F47
3B2C6973
BD97D384
3BFEDF0A
BCB11D61
3CD5AB63
3DD833A8
3D8CB4F1
3CA28B79
3D6FD869
BDBD7FF0
BB472D0E
3CF0ADFF
BD23F72C
BCD3F139
BDA70C29
BD2D21EC
BD98A263
BDA86FD9
3B38981D
BAEB1296
BCBCE16F
BD994BD3
3D58D2BC
3DCD2F06
3DF052A6
3D955173
BCC9614D
BD9FEED2
BD82EFA8
3DEA0EB1
3D436620
BCB5497D
BD8C288C
3E0EFDB4
3ABD6794
BD4EDA38
3C7E7ABE
3DB22AD1
3DD08442
BD68D390
BD61C0FC
3CC00846
3DB1D114
3E155ACA
3DBF5FA1
3DB9CA0F
BC1C240C
3D12910C
BCFC8EEE
BCECCE84
3DCD0F39
3DB3E81F
BC47BCA3
3E243252
3E14840F
3DE5D902
3CE605F6
BD815B8C
3E054A18
BDA797D1
3D855F56
3E2479C0
3BE0FEC2
3D3472AE
3D974B22
3E05A883
3E151071
3E969F3C
3E0FDEAE
3E10002C
BD0937A0
BD5CB4DF
3DBEC6C5
3C3FDE32
BDAE0B0E
3CA9727F
3C4B6E8D
3DF068D5
3D999D19
3D87BB87
3D5CD63F
BDAA3525
BC9F1F53
3D1EC651
3D7530E6
BA938B51
BCAD4099
3D0A33B8
BC011822
3CDAF2F6
BD550654
3C90D308
BA32E115
3DC5D379
BB7DC92E
BCE0BFD5
BD1F2BE9
BDB49E6B
BD550C80
BDA77ACB
BDBB071F
3D18692E
3D6FBFAE
3BF64F66
3D202871
BAF62C76
BD7DEC7B
3D8B073C
3DF9DBE6
3D01C4DD
3C9D73DB
3D873521
3CA862DF
BD8D301F
3D661926
3DCD2E79
BDB80E3A
BCB1B715
BD57F266
BB45577F
BD2E8B0F
BD029C1D
BD8CF496
BD923241
BC7E2B65
3D5D8962
3D6D8924
BC943A02
3D133705
3CDB9585
BDD9DCE1
BDF3102B
BD28998B
BD44934C
BD5BC8C8
BD2FBA21
BC03DDFA
BD5D0412
3D4F38E3
3C184E4E
BCC13B79
3D0DEF71
3D9E9D4C
BD8B9063
BE09458E
3D122162
BDC09795
3BD06C25
BD2A3F58
3CB28D26
BCA28ADB
BDE219B0
3CAB14A4
3D82364C
BDFC9438
BDF40341
BE2325A5
BE14A6FD
BCCAD8A6
BDA1EA73
BE22469E
BB07B06D
BD408E83
BB091253
BDD9FA41
3D11F482
BCFAC2FC
BD4F80DB
BCCD9896
3DE17190
BC2FB289
BD94B814
3BA3C735
3D859307
BD90ED6B
BA4BA39A
3D4B021E
3C8FC7A2
BE0CF646
BBE23D71
BC7F2EBF
BCB4EED2
3D7BA419
BD90D3B5
BDF1F323
BD24F47C
3C2D37F3
3D3238AF
BDEFC83D
3D2CC9E0
3CAB90D8
3B132BB8
BDAD37B9
BC9EF89A
3D7C21CA
BD77BBFD
BCE12C58
BDBD9DA7
3C806F93
3BAB68DE
BDCCA2AC
BB099ED1
3D99A4F7
BD99F4CF
BCF34EE1
3DBF6329
3D7184E5
3DAA70E7
BD16239A
3CCAE8A0
3C662BA6
BDA27FEB
BC5E472B
BDB285D8
3D9E8AA6
3DB6DDD2
BD79A140
BD2F97FF
BD7ACBEB
3CF34D28
BD9C579D
BC5018C0
BD2E58C0
3D4E45BF
3DF223A6
3DEDF04F
3D781205
BDD6B8F4
3C40F630
BDCAE324
BDCB695E
BD786D29
BD0CF616
3CB2EBFB
3BD628C1
BC15E8CD
BD805070
BD4201DA
3D3BB2E2
3D9EA959
BDE51FAD
BD226FFC
BD4522D9
BD39796D
3A81EE2D
BB10659B
3DE188E5
BDA5A29E
BDA260E3
BCCC52C5
3AC7A205
3CD90166
3D071A07
3CB06A88
BD3C423E
3E03F738
BCAEA4C4
3DDDA23C
3E2B8CF8
3DEDF2E5
BD38FA52
BD802023
BD0F22A7
BD0D4790
3D1BEFA8
3DF39027
BD27875B
BCB22225
3DED93B2
BB801154
BD2E46DE
3C41E6FD
3DC030FB
BD296400
3CC02EEB
BDB54023
3DF24948
3C1676AA
BD6E08F2
3E139440
3CA6BE42
3D97CE57
3D945394
3C88E66F
BD969C2F
BCA158EF
BD49F5AA
BD2ED5B5
BD6A49C5
BDC359B4
BD2F7DCC
BD8472E0
3C4124DC
BDA9512C
3D08F843
3DCD6777
3DAD82B9
3D0B3DCA
BDE70795
BD397C62
3D1DD194
3D0506EF
3D94A130
37031A34
3DC55778
3DD383B7
3D171328
3D0E5762
BD85E5A0
BD348AA6
3D92E4ED
BC912688
3D25B006
3C637642
3D201E28
BC2E6984
3B1EE6AD
3D45EEC8
3D2B5187
3D340DD4
BA8D8D6D
3C8512F3
BD768361
BD704F99
BDC8B6F4
3DBB57F5
3D9A4227
BDA3F61E
3DA278EE
BD246A48
3D92DD5B
BC95BA95
BC2FEDCF
3DB89BF6
3D9F6B70
BCECA401
BCDFA9C5
3DC704D4
BCB767A3
3DDE4F26
3D1076B7
3D9375AB
3CA48605
3D14B00C
BD2E8ADE
BD8BFEBA
3D692C7A
3C10C45C
BD904C4F
BD14C3D5
BD81EFBE
3D9277A4
BCFABD84
3DF6B412
BCA76DC0
3D99D90A
3BDC8FB7
3D9F1AD6
3DB162F2
3B95B16B
BAA99C5F
BDB63C5B
BD9C71F3
3D978B41
3DAC153A
3DB5BB3C
3CD815ED
BC05FBE9
3D0A8B11
3CB05784
3DF7B41D
BD792228
BD769485
3DC401BA
BD742211
BDB5A584
BDA86CF3
BD78851E
3B446339
3BE0DFEC
3D8C47A6
BBB7D8D3
BCF15009
3E043C57
3D9F21A0
3D980653
BCB395EE
3D2B22EC
3D9A7B1C
3D80875D
3E1046FD
BD0BFD62
BD462A54
BD2938EA
3D1E320F
3C19BD6B
3DDDD04F
3DF31031
3D9F245C
BD3B1E2C
BB688702
3D8B457E
BD43AA4D
BDC79156
3BBC34B8
BD01A82F
3DDE493A
3E09D99B
3D95EC5D
3BFC4421
3DA630FF
BBE9CE82
BCEDFFAA
3DC8D56B
3D0F1DA2
3DCE40C8
BD30BB57
3DDBF88A
BDC226E1
3D8E677F
3DD8BAE8
BD8A77D4
BDB656C0
BDA2EB90
3CFF2D63
BD859357
3DA5774C
3D8EDAFD
3DABF0B6
BD459293
3D8B0EB4
BCC4B6A7
BD93CCBD
3DC9DE74
BDB40CBC
BD98AB7A
3C471C8D
BD0FC6F8
3D41D810
3DC6CA5C
3D5B7835
3D51EA53
3DCF9FBB
3DD53B44
BD9DDDF1
3D96585C
BDA551C4
BD18F45C
3DEAE6F7
BC276E04
3DEE93EC
3DE61FAD
3D9B1E34
3E053F07
3D9C0C34
3D75058A
3AEAD863
3DA64C44
3DD4092F
BCF45D48
3D58FBB8
BC4B5978
3CF7B1BB
BDB04A5E
BDB2F8C3
3DB14854
BDC15B8E
BC904508
3CBE3D77
BD82F3B7
3DCC975D
BC0789BE
3C5EDA43
3DE5843B
BD4BA6DC
3CF31F49
BD67024F
BDCB35E9
3D4D03C8
BCC19D2E
3B8B1D6B
BDBCD6E8
3D2F5F90
3B58BC3C
BD236142
BCB195FD
3D39414C
BD744DD3
BD42DDDA
BD83FC0A
BDA8A35A
3DC2C34D
3D47BAB3
BCF59665
3D117BF7
BD411DFF
3CC18303
3D89346C
3D8234AE
3CCA8492
3DFC253A
3E02F4E4
3DA3F0FE
BD5ED09C
BD4A23C7
BCA55D35
3DBCF92E
3C7B1C1E
3B6BCAC2
BC8007DC
BD5444C4
BD587349
3DC7E666
3D81E035
3D2749E1
3D8E6F56
BBB04A63
3C7B5046
BC1FBAF9
BC7D0E13
3D2FA4FC
3DCAC079
BD9AB782
3C897140
3D90EC96
BD95377D
3D8471BB
3DC4A829
BD57CFCC
3DA1A45B
BC675EF9
BD454F3C
3DC64ED2
3DD4E6A7
3D57A46B
BD91EC3A
BD3799F4
BD70B8C1
3BDBA17F
3DCB5235
3D4AF110
3CB673F2
3D9B205F
BD49C417
3DB5A6F5
BD4DDAE9
3DA7F148
3D842EE9
3DCAA044
3E033A2F
3DAEB503
3C690B26
BC5573AD
3D963205
3D7613E2
3C963C3E
3D4D6F1C
3DC41754
BD17313F
3E033ECD
3DE24AB8
BD133A08
3DACF3EE
3D1268DC
BD3B7AC2
3E0D035E
3DA8D19E
BD37C1F4
3CABB497
BD2DB481
BD1933C9
3D16FE95
BDCD89F8
BE38F014
3C428B28
BD8C0FC7
BDD9C9E6
BE020B1C
BE06C667
BEDCD2FC
BE4E5C45
BE5FAD46
BE0D34F5
BC5166B5
BDADB42F
BCEE4E96
3D37179E
BDEFCAF5
BD1713D8
BC988003
3DAFF7FE
3C93914F
BD8E69E8
BDFF9D6E
BE040229
BDB5CFE7
BD1AF3CA
3D3E1C4A
BDBB24ED
BD956996
BCBD928C
3C997BD4
3BFF468A
3D655E21
BD7CED20
BCE89F20
BDD69787
BDCDBDD6
BD7A49BD
BD4DB342
BD87282A
BDFDE4E9
BDD91FA4
BD09C350
BD6DBD51
3D70FBE6
3C774683
BD210101
3D7EAA2C
3D98860B
3BA0CCC6
BE01641B
BDBA72FA
BD3D8C76
BCF7554F
3BA91C1B
3D2348BA
BD820254
BC650EC4
BCBFC315
3DBF4048
3BC7564E
3D6174AB
3D9EAC47
3CF6ECFE
BCB85B02
3DFE7012
BD0FC6BF
BB83FD32
B9E4297D
3CFEB56F
3E0AC2C2
3CBB5100
3DF20D10
BD9B018C
3D2AEC0C
3E010E07
3E0A0A4C
3D974266
3E08F2FE
3E1EBE6B
3D9CB196
BCDB07C7
BD0897D5
BCA6FF55
3CFE7B04
3B5527C2
3E48409E
BD15B6EE
3D8804F3
3DFA758E
3DABDFC0
3DEDA40B
BD73BAEA
BD407B41
BCC75567
3DB220D3
BCFABAF3
BD660CBF
BCB37434
BC31B029
3DA4AD29
3BDCCA65
3DB27939
3E12E5D2
BCA06D57
BD085588
3D32D18C
3D722D82
3BF11F66
3DEBE508
BD9A17B9
BD33F5C3
BDA58BA7
3D5DE3D4
3E11D304
3CCED873
3DEF1A02
3E3A1AEF
3DBC6B9A
3E0BDC22
3DAD9B87
BCA0CC12
BCBDCBFA
3E2AD32F
3CB55D83
3E003533
3E298B6D
BDB67375
3B653B90
3CDA66C9
3D73036E
3CE296B3
3D36E8C7
3E287C59
BCF56646
3D5A3569
3E01DB1C
3DD3FBB9
3E2C97BD
3D54E49D
3C9AB826
3E089310
BDA8617F
3C98E098
BD91E01A
3D63F624
BC964C8C
3C267EE3
3D196D81
BDB59A06
BCB420BD
BC968E09
3CFB3398
BD33606C
BC049789
3D8701F3
3DB1D435
3D9718C4
3D543391
BC7A1B0B
BB1AD267
BD95369C
BDFEC4F6
BD7E35B0
BDA9486F
BCEF9F5F
BDAF9E83
BDBFA205
BD9453BF
3DFD2A54
3DFA77D1
3DBDE6E7
BD847907
BBEDE986
3D80A938
BDE734BE
3D8D33A9
BDD1AEC1
3C4EF35E
3BE7B76C
3DF92CCA
3CBE8409
BCD06229
3D625846
BD1E54E4
BD10F24A
BD9846EA
BD7C1415
BDB5A8AB
3E064A33
BD378A43
BDC3E737
BD98EE59
3D5A92DB
BD9F7AAF
BD93BC07
BC82D900
3BC9E616
3C8FF09C
BE7A8065
BD973F5F
3DC63F1E
BDD12412
BDA0C5DB
BDDCD395
BC312DA8
BE41FCD9
BD5C9935
BD5166A7
3D510DEE
3C263DDE
BDA35EAC
3D9D04ED
BDEF66C4
BD9D20ED
BE20CA1C
BD546D85
BDF18B54
BD1EA342
BCE73BBD
BDE7E06B
BD306AB4
BD658996
3D9305B5
3DA996D7
BD711F0E
BB21C210
3DB672F4
BD5EF417
BD00B0DB
3DF75307
3D45FDC7
3D9C2640
BD58D07E
3DC283E5
BD638513
BDB16C81
3C83F6C8
3DE09477
3CADC104
3C02B6E9
3CF721DA
BD7500B8
BCE82AA5
BD277175
3AFD88A8
BD28AA4B
BE337B78
3C5AAA83
BCF13B23
3D9133BD
BCFB898E
BCFE7210
3D8206DA
3DA7A6B6
BDC41D1E
3D8A9A7A
BCA7122A
BC7EE377
BDED8620
3C3B6915
BD697E30
BDDD0E20
3D90F582
BD8DB550
3CD0CE70
3B94C74E
3BAC4766
BD9FF30C
BC0F4026
3D1153D1
BC7EFF7F
3D066847
BC9A2D38
3CBA8F0D
3D839CF3
BDCDEE2F
BDD18430
BCB4EC45
BD21487E
3C9721CB
BD776603
BDD904A0
BCD3F994
BDD8E354
BDEF6451
BD91BED9
3D7E392B
BD9673D8
3D2F0161
3CEA8483
BD6DABE6
BDD8FB5F
BD862BE2
BD894411
3C3BC7BE
BD894CB3
3D952C17
BDB5E0D4
3D764D42
BC9BFEB9
BC80004C
BDCBA85A
BD6AC275
BD73D339
BDAA8CD9
BD93F048
3ACFAAFE
BDBEBF56
BD009112
BC846812
BDECF599
BD7E5942
3D55BBE6
BCC0BB9E
BDD3B366
3CAA2953
3CCC4620
BC393422
3D89F522
BD8BFCB5
BD3D091D
3D5C849C
BDC1F6A5
3D098041
3CFB42A9
BCC47F38
BE1A935D
BDB237EB
BE2F6618
BD6B0443
BE422749
3CBE132D
BE13F912
BCE24849
BDC2F7E0
3CF68590
BDAFC375
3CF74118
3C1B40BC
3CCB27A5
BDCB3FA7
BBF9ABDB
3C26A9F1
3D3FD8E0
3D1890BF
BE0B3865
BDF4627D
BE05E7B6
BCA1939C
BDEC6E5F
BD015228
BDE545AD
BD3787BE
BC1973DB
3C2D3453
BD94F16A
BDDCFEA6
3C9EFF10
BD5F4999
3D923832
BD5E089F
BDAFE7B7
3D099005
3DCB98D3
BDA33C5D
3CC8DAA5
BB8C3190
3C1D770E
BD887844
BDC454F4
BCEC55E1
3D82EB0E
BD2F0981
3D715815
BDA44C31
BCDCABE1
BDD12429
BD4A6510
BDBEA242
BDAAF468
3C87CE0C
3D9013BE
3CA29CBA
3D4BE3E1
BD8AEA17
BCB44220
BD8DD744
BDC67207
BDD48B30
BE36209D
BE572A54
BE41137D
BE1B6189
BCE79279
3C2F7EC7
BD6849AA
BDFD8DE9
BD61CC70
BCA06BAE
BCB686CD
BDB90935
BD3A8000
3DB0F8C4
BD3CBBB4
3D02D61B
BD4C8322
3DA3E779
39D4F80F
3D2A8F51
BDAC68F3
BDEDED6A
BE0928F1
3D82DEAA
BC38065E
3D01655C
BDBF8CB2
BDFD2858
3D28BAC4
3D98D58E
BDA2DE18
3CF12EBF
3C9E5FF5
BD2F5D79
BDAE7ABB
BDBDC768
BE069FAB
BBBB1D95
BDC1C671
3CF619A9
BC34D1B2
BB9E0129
BD45643F
BD43A8B8
BD6F7547
39DF8F63
BC87C858
BD295D7B
BD10D9DF
BE23F840
BCAFFA0B
BD5FC205
BDA3F31C
BDA83C8C
BE0A9867
BDAD601E
BE00C099
BDA7B92C
BC751D43
BC11F452
BDD218F0
3CF432AE
3C908044
BD4ACA48
BC4322D4
BD2B4AC9
BDCA6053
BDB1FD80
3C4CDCBA
3D7D0E3A
3D0366C9
3D018E30
BD5DFC48
BDA77B1E
BCE358A6
3D32CE9C
BDD860F4
3AE803DB
BD98F3FD
BDEFF353
BDE894D4
BB9CDC55
3C908F7F
3DA75261
BD93A437
BE03F544
BD846E02
3A58A6DE
3CF8E51D
3D0527BB
BBC37530
BDB4D088
BDB4026D
3D75ABD8
BDFC7F75
3CBC82C0
3CE506A8
BDE78688
3D99926C
BD6AE664
BDB8AFD5
3C774440
BE01140F
BBFDEC33
BCEAB361
BD7E1DC0
BE2966A8
3C338428
BE302E79
BDEB392B
BDBC76EB
BE2C653C
BDBEBF20
BD9CD549
3D50A1B3
BE0EFD9B
BD5CE348
BE11A165
BCD0CB16
3D4FCA96
BDBF45B4
BD7D8283
3CA908EA
BDAA7036
BCD280F6
BCAE3CBD
BD363870
BDD1CC64
BD43B366
BE1A2209
BE8C0D37
BCBDFAA8
BDD68C94
BDD9DF65
BB90AF07
3CD33BDB
BD53AB6C
3C8079C8
3C6AE580
BB45805A
3D8AFFCD
3DAC7689
3CA26FA1
BD34394D
BBF484F1
3DA39243
3D8CD873
BDD06555
BDB0909C
BDA56444
BC9DECF4
BDB0C981
BA72BEB8
BD88CE88
BCDAD692
3D98CE05
3D61A004
3D353A89
BD87349B
3D583C85
3D53C560
BC8891DA
3D98C9DC
BD7A7FE5
BBA7ABDD
3AEB6F69
BDE215B5
BBC096A6
BDCA9118
BCF6617F
3D888130
3D9D21C1
BDA8AFE9
BDBE46EB
3CBD72EC
3D195255
3D119CAC
BDB63206
3DBDF598
3D3859AC
3D2C2060
BCE86943
BDB6F615
BCDE6DE6
BD57CC28
BCA5E0D3
39A4D4C3
3DEE22D5
3DF56B35
3E09FD76
3DCBAF48
3E0974E1
3D8AB3DA
3D5B6EEB
3DCB0FA3
3D617755
BD89469E
BD2946A1
3D052AC9
BC218376
3DE4328C
3E0F9D4A
BCD5D928
BD040A55
BD6C8B21
BD6B0A9C
3E3FF722
3D985ADA
3DED887A
BCB93E6A
BDAEB3CC
BCF6D5FC
3E09A192
BBC104CF
3DF156B9
3D5C8E2A
3E0960CD
3E001922
3C6EED2A
BD2A235C
BCB33823
BD908E45
3E06324F
3A058456
3D52237C
B8B3F580
3C7F6015
3B0923B7
3C34640F
BD638B4E
BCD5A95F
3DE0DF46
BDE0A436
3C1C0E7A
3D851BA3
BD046147
3D01B489
3D5E6D11
3DE43DE3
3DCF00D5
3D2DF8F2
3DF3FAAC
BDDE9575
3DFE7B5F
BDC908E4
BD09E945
3DA8CED3
3D35BE21
3D4772BB
BD69F5BD
3E1737A8
3E092051
3D98F756
3D89655C
3D9B7F1F
3B77C6AB
3D713647
3D6710B7
BD362BB8
3CF157C5
3DFCC8F0
BBE5C82D
3CF62F1B
3DB3F9EE
BCD83EA5
BD67A724
3C05A2A9
3DBBCD52
BD9E93BE
BE0987A1
BCB51433
BD4B2EB4
3DABADD5
BD67F09A
BB1C010F
3D3A6D20
BD024145
3D603AAE
3DD7BD49
3DAEFA13
BD139E6D
3C2D34B0
3DC42638
3D5C9153
BD8E3176
3D8ED2B7
BD972A1C
BDEA64A4
BDA7994F
3D365889
3A9AA7F6
3DA93E4D
BC8293A8
3D9EFDBA
BD865D58
3D898447
3DAC5D0D
3AE72371
BDC0FB68
3B00BC7A
BCDA3163
3D03C6B0
3DF9CC2C
BCBEEA6A
BBFD3662
BDB89DC3
BDF5F15F
BCBF26B5
BC29223E
BDD97C9E
BC7D5F49
3D9C0386
3DBC7801
3CDFF8E7
3BF49308
3D2EEB8A
BDFA3AA9
3D3BFD34
3D614B76
BD7819D9
3D0801E3
BD70DFD0
3D06F756
BD3810FC
3D990DB6
3CF1B032
BD64EF4D
BC5185FC
3BB0AC98
3DDC36ED
BD57BFB1
BE022AE3
3CBC3FE6
3B96B6E1
3D146CA1
BD722167
3C82C801
BCCA5D3B
BDC1F4B2
BD0D96AB
BDA5B671
BD71C906
BDAC42EA
BDB7E874
BD9A227E
BD63C7EC
3DF246C2
3D7DC3CD
BC41090A
3D38E3BC
BCAFC551
3DF120BE
3DCE769C
3C449B86
BCD9D7BE
BBCB16C3
BCD573F5
3D60995E
3BA81E58
BD8FF9E4
BDAF9CDB
BD9D833F
BC8AB43D
BC4CBBBD
3BD2455D
BDA1E39B
3D7A28D8
3D069E46
3CE542D3
BE28422D
BBF51708
BDEF712B
BD859A5F
BDE30C8D
BD39BE17
BD18A86E
BCFF8B4C
3DAC6D50
BD6CD1A7
3D6E3C36
BDDBFD83
3D7FF1A8
BCF54404
3D112CFD
BCE57FE1
BC0DE1E8
BB3FE1D4
3D5836CD
3D8D2B76
BD74C817
3C7BAFC0
BD1E6047
BD1611BA
BCDF45CD
BC958C5B
BBB53A05
BCE16FD8
3B542A23
BD90CB50
BD3A6FE2
BD70894A
BD9EA7EF
BD825127
3D1C7DCD
BD8B5185
3D2F22AC
3D23B609
BD5A3F99
BD90E0EC
BCDB42C1
BC814DD4
BD0C9AB1
BDCDC97D
3BFE18E9
3D0A69F1
3D0DFF3B
BC74E2FE
BD0748B2
BCA2A801
BD2A93ED
BDB4BE9B
BD1CD28E
3D1B7C17
3D44492C
BDDCC4D9
BCEB21CA
3D844791
BCF3C87C
BC8CF3CC
BDE9C99C
BD8CF8BA
BD31375F
BDB972A2
3D17B41D
3D453773
3DB4591D
3D0F00EF
3D876BFC
BDD275BF
3D8BA906
3DB25D18
BDF0CF90
3D8F3C0B
BDAB67BD
3D64C603
BDF4EB38
BD9055B5
3CDC925B
BC8A2BDD
3CAC5B12
3B08D221
BDF0763D
BE374F9E
BD507D09
3BDDF07B
3BEDB29B
BE18A207
3D2A094A
BDA46758
3C943788
BDFBEAAD
BDDA2F61
BD1AD865
BDEF9F87
3CD458B4
3C20A021
BCDE2A8F
3CEE870F
BD2075E7
3C91311A
BE13A431
BCA0F912
BDB04EBE
BB9C2A57
BD19D1BF
3B85753E
3D3F85DE
3CC8CB9A
BD6489EB
BD87D1A8
BCBF9928
3CABE76C
BD01025F
3D8CDF98
BDD08226
BDADC99B
BCD82CC6
3D2CF909
3D932C81
BD9944D6
3D95B631
BDB4BD88
BD5E51A6
BD9B708C
BC0920F6
3CB43626
BDDEA22F
3BC504CA
3A197BDC
3C8ADD37
BDE319D3
BDB068AA
BDB987D1
3DBC55BA
BD234C39
BD68E212
3A419FD2
BC599D9B
BC5FB38B
BD92020B
3C0494E3
3AC020E6
BC8B130D
BE2AE5CB
BE37AB0F
BC7082BE
BDC61D39
BCC4128C
BDC83179
3D01FEB8
BBFDC991
BD992E9D
BD85FBFD
BD86DC3E
3CD8113A
BACB6E45
BD0B20B5
3DA502E3
3C6F11A5
3DA773BC
BDA56AC9
BBEAC55B
BD968775
BDF200AB
BBD5C074
BDAE70D7
3D441657
BDAA7333
BCA0C862
BDC9F693
BCDCA591
BBEF140E
BC65A4F1
3D5CFB87
BD163F62
BCC3035F
BD03427B
BBAFFF84
3A280C45
BDD27D60
BD1E9327
BCC630D8
3D27AA62
BDCFF764
BDDD95FF
BD13130B
3CF96284
BD7FC9DE
BD8E7B35
3A01B25A
BDD33A28
3D0148BF
BD4307CD
BDF563F2
BE07F2AC
BCAAEEA3
3CC6D39C
BD215E6F
BDC02884
BDBE32A5
BCA082E3
BD96784D
3DBEDCBB
3D93C21C
3D199D37
3D9591F5
BBA7073F
BC8FE567
3D98C8F0
BC7D251B
3D8EA1CF
BDDF5090
3D377435
3CED9533
3CCAF413
3D21DB87
3DA56DAF
3CE9F255
BC376F7D
BD9261F6
BD540BBE
BD2BC636
BD7BE6EF
3D458E80
BDCCF6C0
BDEC714F
3CE3EA09
BB8C17BC
BC0CD59E
BBF19073
3D2137D7
BD338601
3D3F4E17
BD62AC9A
BBEA7239
3D4335F3
BB638DE5
BD3C5607
BD08A4EE
BD605C45
BDED7035
BDBF408A
BC67B90D
3D36AA61
BCFA8597
BD8EDD08
BE03F412
BE14BBB9
BE03E327
BD7B1D73
BD2CD070
BDECB2F6
BD8E6DA7
BD68D4BB
3D1A1B65
3BFED3DC
BD368C33
BD7B6B9A
BD98797F
BDE0B437
3CA44702
BDAB54AC
BD3A99ED
BB0DEE95
3D94213C
BBB652B5
3E1DDEB8
3DD879C0
3D5ADCBB
3D77B005
3E0AEB82
3E29ABE6
3EE4C069
3E7FA880
3E90243F
3D6875DE
BBD6B2D7
BD65FD06
BCCD74F7
3CBA8627
3D8C6924
BCF581DD
BD3F08F9
BD85F763
BCB19A50
BD2B2540
BD41C079
3DB53D6D
3D696432
3D33183E
3DAE141F
3D86FF05
3C482C55
BC0B62A0
3DEFF5F2
BC3BDAA4
3DA48C30
BD5B8DBA
BD8FB004
BD41BF20
3D2419E5
3DFC23EA
BD39F8AF
BD93D2C8
BD879053
3DA35E0A
3D368BF4
BD0818C4
3DDBEBF4
3DBB4641
3D9C91A1
BD2ACF98
3E0762FA
3D35F71D
3DC3EC8C
3DE3D875
BDA47AE7
BCF7476B
3D20E088
BD0FB509
3D679B98
3BC65166
3CC88005
BD9005E4
BD80A1F3
3A893E24
BDD0641E
BC0F7EB5
BE11B9BA
BE132EEC
BD9FE172
BDE35D78
3CB907BB
BD358CB2
BD4D6D25
BDB90D0C
BD5C6D92
BD97A1C6
3DB10075
BE078F0E
BE40902D
BDB7B2FB
BD2202FE
BCB2C240
BE33BA02
BE289E7C
BD0799E9
3DBA5AF7
BE4D77A9
BD2A2AD9
BE4EC0D2
3DC0A257
BD0859A5
BE30D354
BE6E0A83
BE006BFA
BB8C8F9B
BD918403
3D8A97DA
BD40ADCA
BD249B7E
3D29FCDF
3D85E366
3CBDD649
BD61DF82
BDBDB9B2
BE2290C9
BE0B5DA2
BE0F96DB
BDA4565F
BD865A43
BDE6AD9B
BD389272
BD59CBCB
3E2F3288
3D9A935B
BD184158
BD09FDE5
BE003180
BDC3E762
BE3E4CA9
3D1C7C21
3CCEC06C
BDE11705
3E5A1F81
BE080D43
BC86F14C
3C009EF9
BBB73109
BD3F8E4D
BE5E11BD
BDF9A4F1
BD8E832C
BE69244F
BD5D491C
BDDF7FE8
BDAC639B
BD8401AC
BD71F44A
BE2DE72C
BD0ED79E
BB56E0B9
BE0AC284
BE41F006
BDFCFF3F
BD69E08B
3D02F891
BE2218BB
BBD589C9
BD3A6AD9
3C7FAF0E
3DCFFCDD
3C0E56DC
3E090D21
3CDDEEB0
BDAF01FA
3DA672FB
3D5E108F
BDBAF80A
BC560655
3B9F6A9B
3CA8E8FB
BC8433DF
3C840E74
3DD9E0C4
3C11E047
BD2FD155
3D41A479
3E11143C
3D39F2EC
3E40ECEC
3DC96673
BD546C02
BD1F79F3
BE0F0508
3D08DA4F
BD4E5AE2
3D8FAC13
3BA6D771
3DC3D630
BDE34040
3DC46EEA
BDD3D162
3E104E5A
3CAFCCB2
BDA2AB2E
BD762220
BDA30748
3D8D5D87
3D5529CE
3E06685B
BD0F8215
3D213BB0
BDBE55E1
BDC882BB
BCD69334
3D8715B7
3E0FD40B
3D49CC44
3E09EFD5
3D83EB5C
BCAE8081
3D3C5D98
3EA53781
3DA92D4C
3D13F108
3D8D68D8
3E1E9CF3
3DEDAA26
3E0A74F5
3E5E697B
3C795D47
BD89591B
3D4AFC3B
3E18A30E
BCEBC249
3D894A08
3D449CCA
3DFD0808
3D91F2C8
3DAAC812
3E806098
3DBC4FF7
BBADB882
3E09E6D7
3C221702
3DD27EA9
BD68B72A
BE0A2084
BDF27916
3CF2127A
BC240902
BD8075D3
BD92F146
BCB3748A
BDB8EA55
BDC0DA07
BD64E40C
BD967D5E
3C82A737
BDA001DE
3D4DF750
3C7DDF1C
BBA7FE81
BD979A80
BD8F0B5B
3D83153F
3D7F1CA6
3BA83914
3E0216A5
3C9C4EAC
BB85FA78
3D2434B2
3DAFEF39
3D048E07
3D8D7C11
BCDC3BBC
BC05810F
3CA7A784
BDAED577
3DAD6661
3D8A0D9B
3D10D339
BCCFF787
BD5F14A1
BC99D469
3D553929
3D89C1F8
BC0ED9AF
BD3ABD8B
BD1E6897
BB7F7296
3CC23548
3C05BDAD
BA8B3827
3D9B960D
3D2B737E
BDA3B250
3D86E7A6
BCF4CC43
3DB28E42
3D32E3C4
3D65DAF6
3DED8474
3C3CF81D
BD97AA2E
BC83D6EF
3AE30A15
3CFFA287
BA57665C
BD9A5A82
BDA3CE84
BD3815D6
3DFE5BD7
BD56DFE5
BD09E988
3E1B5109
3E06C1E6
BD6B6137
BD38B6DA
3D5F711A
BD83A27E
BD19CE57
BDBC9C44
3C8EDD06
3DA4FC28
3DEEAD31
3DAD20E2
3DB0F9FB
BBCFBF83
3D78BC12
BD4D9DFC
3C474A1E
3DCD7FCB
3D681466
BD010CE4
BDA87E36
BD1CBD17
BD5F4D3B
3D887911
3BA19C78
BC12F313
3C843D1A
3DA7024C
3DCA4D8A
BD0962E0
BD7C0F4D
3DA016E7
3E27F504
3D6B7ECA
3E02B900
3E06088A
3E0E397E
3E1F1DD7
3E268A56
3E35001C
3D2D4BB8
3D1F0374
3D6F77EF
3DDA366A
BCF9B969
3C231143
3D72BC32
3D1B51E0
3DEBD188
BD6571FB
BCAF6BE8
BD103115
3DB9D94C
3C3D092F
3D7194D3
3CC59383
3DB9ECD2
3DF683D2
3E1EAD0B
3E0BA2B9
BD8430F8
3DB6BD57
BCF8DE9F
BD91C367
3DAD375B
3DCA3486
3D8124C9
3CC66736
BB083BD6
3D3C383B
BCBB11BE
3D84D255
3D1EC1C1
3D9BF107
3DC82362
3B9106C4
BABD480F
BC070E88
BD3CD001
3E119B65
BC867ABF
3D1ACCBC
3DE88B66
3C41C85A
3D26F1B7
3C45F55D
3DCCA0AB
3DB5E66E
BD1BFD5E
BCA9224C
3C9B1E84
3DBDE2B6
BD4B72AE
BD4779F1
3DBD5E35
3D55547F
3DF97A6C
3E2E0A46
3C30B61E
3E3DE30E
3E91AA3C
3E9F7F89
3E327332
3D807870
3C0D6C7B
BCAE0F6B
BB395C20
3DFA4CE9
3E03451B
3D8C6B22
3DAB614A
BD8B1244
BCB65EB6
3D457340
BCAF3B91
3DC4007F
3E021506
3D695A14
BD83A1B1
3DA93F5A
3E204158
3DF0365F
3CCE2789
BD30389E
BD24D958
3DF747A2
BD994931
3B8D509C
BD8D76FF
3CE1A1EF
BCAB2500
3D6490CB
BBDCC505
3D080215
3D7A4351
BD8F5612
39649FBF
3D1BBF11
3D9672E1
3D6A0B79
3DA75069
3D454CC8
3D403D4F
3DF54DDC
3DE741EA
3DC9AB4B
3E0E26EF
3E315080
3D194FDD
3D8360B5
3E2CBA26
3DAB89CD
3E0A5A4E
3D809321
3DB26CB4
BD27DD87
3CA90E7D
3D124CD4
BD492675
BD17490F
3D889829
BB82D405
3CAADBF5
3CD5FD8C
BC6845E6
3D7C6960
BC83B199
BD85452F
BD3CD01C
BCB5CE2B
3DDE075C
3DE5484D
3A24C4A3
BB58B12D
3D431E2A
3D47E9D7
3ADF4260
3DAE02CD
3CEA306D
3D959F87
3B9E0B45
3E0A8245
BA9A315E
3D869B97
3DBA9E3C
38ED0D96
3DF0AF2B
3DCAD844
3E122D50
BC5F4974
BD31115B
3A37FC51
BBA58B9D
3E1BAAEB
3E0B2DDA
3D5B44A9
3D7C8D60
BBF31681
3DA830E1
BCED61C1
3BB58424
BD1398A1
3D94C824
3C2D2C22
3E036FB0
3DCFB876
3E3EB1C9
3E3FDC50
3E18D1DE
3D663B0B
3D3FB564
3DC7DDB2
BC85CEAE
3E30CB6E
3E2F41D2
3D340FC1
3DE47648
3DE39282
3E1AE26F
3E42896A
3D137834
BCA2E317
BDC038DA
BDB80160
BC80F84D
BDBD2FB6
BDB933DA
BCE1A76B
BF00B437
BE4E6305
BE5F92EB
BDCE5DC0
3D179A71
BC8B494E
3D6926A7
BC7359C1
BDEEBC02
BDEAB439
BD93D216
BDD9803F
BCA32BDE
3CB79BA7
BCD59B2D
BCBEEB9F
BD15582E
BDB2010C
3B58CC96
3D243D9F
BE1FD702
BD937712
BDA72D84
3B1FE9A7
3D56F88F
BCAB7A44
3D0C9F9C
BDC61D1D
3C2B84F1
BA7BD054
BDB1BFA4
BDCAC62D
BCB950CC
3D291CA8
BDE1A6DE
BD3B2272
BCBAB36C
BD11DEC4
3D5EC31D
BDCEC95E
BD67F75B
3D87FBB6
3BB523B4
BD326882
3D990FB0
BD1C137D
3DD430E8
BD274742
BCC7A993
3DAE8D5C
3DB0628A
3CD9C707
3BB2D07F
BBF03AA3
3D2AA853
3C4CF0C9
3D8B5103
3D7AE1F0
3DC71FF1
3CEC26DD
3DB515CD
3CF42450
3DEE91C3
3E2CC75D
3C4264CD
B9C26EEA
3D9770CC
BB5FFFB3
3DA85F7F
3E24B301
3DF899A3
3C7196B8
3D074945
BCCCCA49
BDB0384E
BD659E57
3D56B561
3D89CB99
3E58F63C
BD464C78
BD9EC5A5
3D7A2C67
3E59A8B7
3BDEFDED
3E08BF9F
BD13BC9F
BBDB3E82
3D1ED71F
3D7D5139
BD00AF34
BBA03F39
3C7F561B
BC378754
3E2CF860
3E5B0AEB
3E200DF5
3C6F77A7
BBF48D82
3D9DC2AC
3DDC96BD
3D7CE87E
BD114425
BDF1DE02
BCE9170C
3D05E5A6
3DFFC677
3E03BB34
3DB90633
3E60B090
3D9A4FEA
3E12AECC
3D9F8330
BE0440ED
3E266E7F
BDAFF24F
3E2101DE
BDC39E02
3E0FE80D
3D45785F
3C792568
3DBDB9C7
3DC9B891
3E19F7D8
3E004287
3D8F98C2
3D9BE907
3E24C5B5
3E08C500
3E18C865
3D5C0F9A
3D9F4FEA
3C248BF7
3DC49F71
3D1B9991
3C45F0AE
3D823782
BD39EFBE
3DB0A24F
BD50CE16
BD8DB0F5
BDE2DE33
BBDED38B
BD0B12EE
BD4B0432
3E023D50
BD6268F5
3DFE074A
3D08E6B7
BD48DAB2
3DDC2C80
3D779217
3C9A536A
BDB5ADDF
BC7A6108
BDA70038
BD22DCC8
BDA7845D
BDA12FB0
BD980E71
BD87AB94
3DA83E9B
3CB102F6
BD8BCE27
3DB6AB6A
3D1E0A99
BD74D406
3D54C6B5
BDB39917
3E0B26D2
BCA0D59E
3E149D4B
BD4FB5C4
BC7B9740
BD2C35A5
3DEFCA0E
3D29C1E9
BE0F05AE
BCE52B46
BE1A4309
BD5558F8
3C4A1620
BD5BECF7
3D9CEF5F
BDD0A3FA
BD1DA972
BE26FA23
BD80625C
3C9DEDAB
BDCAA95E
BDB40440
BCC8686D
BDCDF2B4
BDC9FF72
3AB33FC3
3D31C604
BE01740A
BD814EA5
BDC4B3AB
BE907575
3E00760F
3A28A438
BD18968D
BD697F5C
BD5A2A1A
BA4B7769
BD8912B7
BD73460F
BE3BF03F
3DBAB947
BDC673A5
BE0DC05F
BD8B87BC
BD23AEFC
BDC5EE1B
BE13BA2C
3D3FF8A2
BD09540C
BD59EE75
BCF40D34
3D985B0C
BC6B5B51
3DE257F6
3DA12A62
3BCAABCD
BD969AC7
BD1C8E18
3D1FE253
3D6846C1
BD1DE98C
3D745747
BBF0F127
BBCBDCC6
BD3324B3
BD18CA5C
3DDB0D71
3D43CD27
3C7A3CC0
BC8439A8
BD1C2462
BCD96E9E
BDD5C84E
BDC70418
BDE9E4E5
BD20C25F
BDC644BB
3CA3ABAF
BB69F3A3
3B9B430C
BD1E1E0E
BDBA28BC
3D219331
BDBBBEF2
BCDBC56D
3BEAC6CE
BD656FEE
BC9B1F11
3CB57010
BD2B0888
3D2F8FC1
BD7CA75C
BDDF8211
3D28400F
3D453FBB
BDAF0574
BD622A83
BD994681
BC1950A8
BDD07079
3C80BC20
3BA5EFBA
BD656E33
3D34FAD8
3CED6299
3CCC1A02
3D87937E
BDDC0978
BDA212B3
BD80327D
BD8084E9
3DB2C4A7
BDBAB2EF
BDB8B7F6
BC2ED484
BD7994E3
BE0B7460
BD487071
BC8F2121
BE0895F4
BD320251
3D3612D7
3A95DE51
BDC61CC6
3CC37345
BCE76B16
BC4FC68C
BB25A745
BDA3C003
BC8B76FB
BD64B4EE
3CB43257
BDBCFE21
3D0177CE
BD18DF87
BCF96CE7
BDB143FE
BDBCE59F
3CE80140
BDEA84C4
BA68D9F7
BCB789BC
3D47FFFF
BC51D5D6
BD58A91D
BC54C410
3D255AA4
BD714250
BB9633F8
3CDC6751
BDBA14F5
BD4365F0
BD847345
BE4C0B32
BDFA8F1A
BE2C29E6
BC6449B8
BDFFA2E0
BE2AA92A
BC959226
BCDD273F
BDD8B188
BD5F2040
3D5F3EFA
BD14E5A5
3D7AE54B
BDB15061
3B85D925
BCCA6D98
BD6A46DC
BC52E55E
BE26A773
BDA72122
BD7CC087
BDBCA6CA
BDCA3F7D
BDFB51AB
387B95D4
BD86FB15
3D5C4FCA
3D4AD763
3D09063D
BBA47C3E
BDC4EAB8
3C3FC0EA
BB0AADB5
BD537ACD
BDD2CC56
BD32139E
3D8A06DB
3D153579
BDA829D4
BDC44CCA
BD65FE5D
BDF89F60
BCD11D6D
BB0A8DEC
BD767878
3D8AD4AA
3D068240
BCA10CDE
BDC69A70
BDE9522E
BB0034EA
BB54B904
3DC2C708
3DB0A47E
BCF70AA5
3DBA1ADA
BDB42EE6
BBA1D777
BD64B64E
BD7E0972
3BDC0ECB
BE51CC9C
BE22F4C9
BEA211FB
BE322EEF
BE253EAB
BDD2F41D
3D0C8B8C
BCAE7BA5
BDCF1643
3DA14F8F
BC8DF9EA
BDD4DABD
BD852A88
BCA6405C
3D56959A
3C2DDE5E
BDAC8F76
BD9A3498
BDCF9E13
BD958EAD
3D725632
BE19C0E4
3CF90CC1
3C22BC5B
BDDDC834
3D8AEC30
3D22946E
BDB9BAEF
3D482F3E
BD07D8D7
3D24656E
BD762D7C
3D5A8013
3D2C330A
3D312FA7
BB584D77
3D5D8C93
BBEBE00F
BE08105F
BDF5D1CA
BE046CD3
BDC0E855
BD917BD0
BCD167E5
BDDF8E98
3C3DDAFB
BD554C04
BDA9D24C
BD987CED
BCE54872
BDEEDBFD
BE2383D1
BE2F1814
BCD3E264
BD21F0BF
BD8D65E5
3CE22EDC
3D087F7C
BC372541
3D8ABD8B
3D52226F
BDD2BC50
3C5AE17C
3C8A8384
BDD61864
BDDAA4C1
3CECB705
BD2F1E6F
BAD5005F
BDE8FF3F
3DAA4C4A
3D0BD52A
3D69E272
BDD2E490
BCDED753
BDE95DF0
BCEF9E17
BD9D2226
BDD871A4
3CC2C929
BDD6FD4A
BDD26185
BE088714
BDF2BC2E
3CF3E8D0
3C739334
BDDAF473
BB3323E4
BD8E5FAE
BCD31E43
3D61E0FE
3D372FDD
BBCDA012
BD1AD899
BDA461B7
BD7DD548
BE158951
BCA9F4DB
3D3320A2
BE011B1B
BD7B31CB
BD627660
BD3609B2
BE0951ED
BDE9B3A5
3CC7825F
3C5CA92C
BDF2C777
BE1128A7
BDF40F26
BD60D337
BE3FDA1F
BDA758EB
BD1ED1CE
BDBBDA24
BD32632B
BD80527A
BD689B33
BDA1F9AB
BD57487F
BDEF0195
BDF1E5D8
3DEC6ED5
3DA39F76
3E1545D2
BD5E2F2F
3DC02ECC
3CC10163
3E034E97
3D425564
3EC2F4F0
3E98050D
3E364C17
3DD9086B
3DD5CD7C
39D2F1C2
BC265381
BBC4F4BA
3DE9F6B0
BD0993B8
3E0EFE62
BD632498
3E061803
3DF4B931
3C0412E5
BD3C95DB
3D107838
3E2FD883
3DFAD4E8
3DF4A3BF
3D1AC93F
3C65B36F
BD39D0FE
BD9B0DD2
3D8B1F9A
BBE0BB3B
BD856E58
BDAA24A5
BC0BEA89
3DC9874C
3DAF19F2
3CD5C028
BCA03FAE
BBD6B2D8
3D3AF79A
3C477DE3
3D739945
BCE0D210
3936C9BD
3D8CFE23
BD0EC132
BCD3FB82
3D6DD01E
BC353DB1
BD72D53A
3D2819B4
BDBB8114
BDB91680
BDCCE33C
BCBA1980
3CD3B37B
BDFB8F29
3D887856
3C11F5EA
BE0ED838
BD4D8B02
BC80555C
BE054674
BDDAAE70
BC80007F
BAE01029
BDF2F80D
BE055C9E
BE169043
BD10E4A9
BDA52BC9
3D085586
3D299A8B
BE049109
BD9748CF
BACCB0CC
BDE425CC
BD49261B
3CED1A73
3D207FA0
3CCFA083
BE4B4B82
BDB34103
BE056586
3D46A442
3D9320C2
BDA66B3F
BE2949BE
BD6BD280
BD53FCDA
BD1C5F72
3D89D838
BDDB3871
3DF06B11
3F0367FB
3E2FB9F6
3E62979B
BCE7618E
3B8D5058
BD8951E3
BE314B6A
BC4BCC00
3CE3523F
BD356752
3D01878A
BDABB28B
BE0DFCAD
3D6ED3C2
3C189DC1
3C35DE09
3B66B41E
BC1B2C33
BE0AC00C
BE30A289
BDA3B22C
BDDB2A2E
BB869591
3D8878C9
BE15E0D2
BCD8FD5F
BDF69472
3DE67A0D
3CBD332A
BDF2CB3D
3BC5E279
BDF420BB
3BB2F974
3D1E510D
BE1BB505
3C884666
BD80B8E7
3C1F044A
BE29932F
BE2B01B8
BE21B2B0
BE0B2405
BCE2F33B
3AF92C89
BD9811AA
BD3E5DF5
3C5B3D04
BD54170B
BD964A0C
3DAF5D20
3E2F4F5B
BD46F8FB
3E09272E
3DECA5C3
3D6C0EA8
BD8AC200
3D85CF3A
BD892113
BE1F3576
BD73A8DD
3D3C7823
BC0A304F
3D3191E6
3DAE4D89
BBAEAE7B
3DBA5C91
3DB491C1
3E21796B
3E24A6CF
3E40261F
BD8A2FBB
BDE849CC
BDA137D9
BDE8340B
BDE6CF58
BD529521
3D6D6CF5
3BA82FE0
3D27FA7F
BD6EEBA0
BDA68C1C
3C3453D8
3E120A17
BDAECD89
3D411064
3D9A5FB6
3D55BAD8
3E2CD013
3DCF9852
3DE7F57A
3D20E7EE
BCD7E9A8
BD828B9F
BCDF9E57
3E182106
3C0C9951
3DD9A6EB
3D336020
BC6DB4F1
BC170C8A
3DE987A8
3C8082F0
3E8580B5
3D9E8888
BD402125
3DC4B47E
3D15352D
3E14A1F2
3DE5D71F
3E8292AE
BDD2601C
3DC6ABF5
BC34CA66
3E0F20B6
BCCABF37
BBD0DA49
3D4B5BFC
3E1708A8
3D907E8E
3E0F68D4
3E74BEAE
3DF5C5CB
3DB5658A
3D558427
3D3F3099
3DC0403C
3E0914B4
BD8217CC
BC13CA2C
3D40E262
3D0172C1
3D1C79EF
BDC956EA
BD8EA355
BDD71F4A
BD411533
3C6BD7B1
BC38769D
BD76ECA4
3CB158E1
3B5C53FB
3C41807A
3CD1FA2D
BDAEED06
3D8E6B2E
3D2F513D
3DD23A9C
BCB05AEE
3D2E0CA1
3D647C6C
3D755029
3C1EDA92
3E17450F
3DDE2A98
3E0C1A80
3DDDED6B
3D4F1BCD
3C4686D0
BD2FE3F5
3D858670
3D4AAD5D
3DB78D84
BD2C2039
3DA6874A
3E1C875C
3D096629
BD010B0A
3DAEB1C7
3DD36ED8
3DCC596E
BC816191
3E102026
BCB24F4D
BD38BDB1
3DEEA95C
BCF72DA0
3D8BE7BA
BCDE92C1
3DFA63D0
3D507A0A
3D253912
3D243D43
BCBD4ABA
BD87F106
3DA5A938
3DE392ED
BC895C13
BD347D4C
BD62170B
3CE38CF7
3D8C3297
BCCA32F4
3DAD4EC7
3E08EC97
3D92435E
3DF37616
BD28977C
BC64C799
3E002C9D
3D57CA48
B9C9B1C4
3DA2C3FF
BCA9F1B7
3DBE1B58
3D383534
BD40DC2F
3C9E11BA
3D55CB93
3DA2FDF9
3CF67700
3B8BDDAA
3D2B62C9
BD6CC78A
3DA90161
3DA51581
BCB2E1DA
BD63A460
3D3221E0
3D7EC9CD
BC31C29A
BD6A8699
BB98B67F
3DDC4EF9
BCA81362
3DDE6E69
BD1A8C34
3DAF7AED
3D5C21C2
3D06A22D
3DE7F607
3E190783
3C97F90C
3E5B0CDD
3DE7DE6B
3E0A13FD
3E01CFA3
BCD178F2
3E1A11C5
3DD96150
3D0D740D
3D6C7062
3E090682
3DDC68B1
3D0E5F86
BD2A68DA
BB97716A
BC3C6F8C
BCE0C319
BC1DF4CA
BCB6C1A3
3DF60D38
3E4A1DE1
3E377061
3B27F7E0
3DE24BA9
BB95FDB4
BD754268
3D68356E
3D670489
BDA20077
3D9B9970
3D8F1CE2
3DF41CF2
BD38835E
3D316089
3D97D716
3E02109B
BD955B02
3D1C4F39
3DF66907
3DEF1F1A
BDB3388D
BCBCEBC5
BD2B7B8C
BD5ABE7C
BDB48C76
BD0D5586
BD22A71E
3DC16315
BCFF8857
3DD37F75
3D1AF274
3DE409AE
3D4BE025
3CDA1F81
BCC4CEEA
BD43CA24
3DF5B46D
3A5452AA
3D606CFD
3E031783
3D6E47BE
BB349083
3DA99043
3E53C89C
3E6E8852
3E74887A
3E1AFD5C
3E208FE3
3E043404
BC4356F8
BA402859
3BCABC3E
3DD15DDF
BD078146
3E01E9BE
BBF0812B
3DA08B88
3D2E250E
3D30AFA7
3D4CF510
BD8BA36D
3DC549DC
BD0CA334
3DD9029A
3DBC210F
3DE76351
3D8A846B
BD699B32
3CFE83ED
BD29817D
3D9C454E
3D8D3DDD
BBC7B932
BD98ADD9
3D1D6C36
BBDC1DF7
3DFE06EF
BD22E2BC
BC90511C
3D26811A
3D421A56
BB89028F
3D9B6A8C
3DC7F6FE
3D6D6870
BD7D7391
3DB8C28A
3D78E47B
3D3F8506
3CC64F49
3DC0C3FE
3E28B5FD
3D69FD37
3D9BC985
3E0EE5D0
3DE522F5
3CAC6785
3D63A6AF
3DC3FB81
BD95A9DC
3C6134F1
3D87E7BD
3DB3B547
3E021C0D
3D59B254
3CA9685B
BCEAF116
BD6BA0BF
3D97CA45
3CF4728F
3CDE4051
BD776662
3D857CDD
BD604AA1
3C502F6F
BCD59CAA
3DBB74A5
3DE6560C
BD05240C
3DD23498
3D3E9465
3DC4D809
3DA91CD3
3C723856
3DB6D0F1
BBB37F44
3BF2D911
3D670FC6
3D495A04
3E095179
BD67127F
BD0F4AD3
3DBA212A
3E142630
BD259772
BD494280
3DA7D048
3C819FD7
3DD901D8
3DD0955C
3C8ADB33
3DB03D86
BC5B4744
3DD27863
3E04CAE9
3E0FFDB1
3E1D0A4F
BC34044A
3D7388A4
3E139238
3D84ED47
3CB33EDD
3DEE8151
3E3F8BD3
3D9C7B43
3D11FF79
3E09CE9A
3BB9C7CC
3E42F1AC
3CC7F6D5
3E04728C
3D0DEDBE
BB3C1354
3DF2EAE0
BCE547FC
3D3AA7CD
3DB1B96B
3DA92578
3CE89886
BD6AB27A
3C8074D3
3DEA6460
3EBCC090
3E4F62C3
3CB3B691
3D8E35D9
3AC979FF
3D34D708
3D879471
3C1E0021
3D4B95BC
BD862C26
3D28091B
BD5E2A01
BC83EABE
BCA8B4C0
3D1BC2A8
3DBB58A7
BCA6DCDB
3D8036CC
BBDEDED5
BD53ED0A
BD61D710
BBD88BDF
3DF93BCF
BD8DE97A
3C65CB69
3D9977D2
3CA36D83
BD076589
3D66EF6A
3C626D45
3DD386F7
3DE1A93D
3D5B620D
3CB2BC9F
BD37786A
BD49FDD6
BD9BF245
B9276CD7
BD2D636F
3D3A0F2B
3DD676B9
BC8DA55F
BD93CB24
3DA8E624
BDBFA58E
BD8990C3
BD542DC0
BDA5C1A4
BD7B0D37
3D8E23AC
BCCF2F92
BD04A782
BDF01902
3B929878
3CA87491
BDD88641
BD4C3EE9
BD09C433
BDA51581
BD6A4EEB
3CF26C4E
3CEDF711
3C8F0581
3C72BC5B
BCD9BA56
3D272917
3D779CBD
3C3C808E
BE119CBC
3C7E68ED
BDE393FB
BE2ED191
BE1EAB40
BDCDEB48
3DD1E18F
BD822D1A
BDF7CB5B
BD963F38
BE0A5185
3C3E6187
3E096CF9
BE32F058
3C13227E
BD179B9C
BDC3353F
BE4DF88C
BDEEA32E
BDD8DDFF
BC01FF78
3D5A97A7
3CA01C6D
3C14A25F
BD4E3B84
3BD70043
BDA00EE3
BE147D56
BD44E400
3D3BF78B
BDD92257
3D936937
BDA56FCF
BDBE5A18
3DD17F5E
3C2D713A
BCBE207A
3C8A6BDB
BD24E179
BE10D5AF
BE0B593D
3D237509
3D1C4F49
BD7CB08D
3B835737
BD8F4992
39B777FB
BCB01412
3DB581FA
BBA9C956
BDA3287A
3B19CE2C
BE151357
BE37CEEB
3D277095
BDCC2E04
3CB85E57
BD266F76
BDB59F5F
3AFDAB43
BCF97CD1
BC5AFB9F
BC8DFEE6
BDDA0953
BC9D29B4
BD861CC8
BD399D98
BDEB9AC1
BDBE9F93
BDB0BEB1
BBDB1965
BCBC1F4F
BD27D259
BC4E76AE
BC6F9F71
3C89B8D9
BD6A87A9
BD5CEFA7
3A2A9366
BE079C85
3D2822D7
BE037257
3D8F7BD0
BDC51390
3D4C0189
BD12F7D2
3DB4931D
BD3D4F64
3E1B0332
3D2463DE
3DF765E8
3D0E405C
3D88E819
BD45067D
BDC0F6D1
3D20C2D1
3D2D34CA
BCE5D818
BD529B89
3DD8EFE6
BDD269BB
BD91B019
BCED92A1
BCEC8CC2
BD1AA6F6
BD08A74E
3C0FA99B
BC986E37
3CE390A3
3D822DA9
3E0E5406
3DD1B9B8
BD804962
3D817679
BD97B62A
3D05290D
3E0429FD
3CF11DC9
BCA3508D
3D87BEF9
3DB7863F
3D8C2F8A
3CBFAE1B
3E866563
3E1D9E46
BD4EF46D
BD8309B9
BAE86AC4
3D1AD9CB
3DA559E9
3E80C0D8
BCBECA0B
3DADB7FC
3D576189
3E06CB5A
3D150897
3CBAAFB8
BCDF7E04
3C3A0A33
3BA7D1DC
3CAFAA14
3E1FE1F3
3CD62F77
3DEC9464
3D8B7814
3D9D8CC3
3CB58522
3DA37278
BB8752C4
BDA0978A
3DB20D71
3DB3DDC0
3BEB05A4
3D89FEC6
3C3C4202
3A90BD7C
3C83EBC6
BCE241E1
3D886FD7
BD0871F7
BD12B8F0
BCC909AD
BC67B1BF
BD083E08
BD8DE5F0
BD5386AA
BB9E5F08
3E01BD95
3D993648
BD2FAF50
3DF19E02
3DF69C4F
3E058EDB
BD339F49
3C7B02C0
3DCB4CFE
BB30C449
3DD529EB
BD88CBC0
3D0D2859
BD46E080
BC6D9C49
3DAC2085
3D1DB20B
3D92B738
BD2DB9E3
3CCC1722
3DFA8A5A
3DBD9272
3BCF090E
BD963476
BD221DE2
BB9A7C91
3D9CA1DE
BDD403BE
BDA16DD1
BD9E5FA4
BD1E0FFB
BDA221E2
BD9C999F
3D8FDF3D
3D8AE627
3D6A9BDF
3C8DF735
BCE6B5B3
3DE5BFCC
3D95238F
3DF1B40A
3D8BB8FC
3D03221C
BCA3581E
BD982E78
3DE51D8E
BABB12F4
3E065BC5
BCB62FF6
3D16C921
3DB07DFD
3C07C2E5
BCE47B9B
BD435281
3B58363A
3DAE40A6
3D469A0C
3DAE6B15
3C999184
BC90C9FC
BD5E5508
BD1E6688
3DA32331
BC773C27
BDA21BB2
BCEFEC03
3D850797
3D39514B
BD1C61C9
3C15DB1E
3D8FB45E
3D02560E
3DBC69C2
BD39603E
3D82A3C1
3D93B90C
BCA4727B
BD3632E1
B9B1E7A2
3CC9F4AB
3D032C15
3DBCCE0E
3E06499D
3C9A34B4
3D015CB8
3C9478AB
3CE475D7
3E235693
3E1640BC
BD6722F3
3DC302A6
3D26FC2E
3A69BE20
3BDAC71D
3CDBA272
3D41A5A9
BD6B7662
BC109421
BD2CB40B
3D24F47E
3D2062CA
3DC54742
BD2943A6
3CB24E81
3CC0DDEB
3D2589DC
3DA711A7
3C6A7E34
3DAA0BEC
3D24DFD0
3D913EC6
BBD7F337
3D025F5F
3AAC7772
3D8D875A
BD21B74D
BD057256
3C7204C5
3D1BB70B
3D7184D3
3D0E9023
3CF6E1C2
3BBB049B
BAB9C0BE
BD71A87C
BDA2DD1E
3D3479EC
BD27114E
3DCA21EC
3DA211E5
BD8311BD
3D160FA8
3DB0D009
BD2A0471
3DA04ACA
3DAC8627
3CF1B9BD
3D433314
BDC94DF2
3DB32246
3D40D67C
BD07AC5E
BD6CD4A7
3DA0A275
BAAC6862
3DF1E049
3E090A9D
3DA9BA44
3E0DC454
3E177CED
3DF52542
3E394BDE
B92DC94E
3D6BFB74
3DC15CBB
3CF731BB
BD6EC611
3CE0F809
BBEC8D09
BCB60BDE
3D7D3A99
3D2DD053
3D0D2F0B
BD9BF492
3D536CA3
3CC3D324
BD17D99D
3DB09F1C
BC7F2372
BCF999D2
3E17CE80
3DCDAAB7
3DD10111
BCC366E5
3BDD2009
3DC48593
BCE42387
BD7667CC
BD96BF86
3D7AD70A
3C4CA697
BCCD1F0E
3DCB7597
3E024BB2
3C899C01
BD45120D
3C2C7361
BCB768F3
BD657475
BC342BF2
3C8C2400
3D98B452
BD4DB99A
3DB9D17E
BA9C1216
3AA166D5
3DF904FA
3E2600B0
3E1500BA
3DCDA0F6
BD1F419F
3D82C52E
BC9021AE
3DED0FE2
BCC17149
3C478D54
3D902C8E
3D635D03
3DDF19B6
BCA3C033
3D8EDC8E
BD9442C3
BD0D085F
3DED5A78
BD1AF69B
3D2366C4
BD9A83CB
3DF82757
BDA2CED6
3DACB122
BD98AE0A
3D41C000
BC601B8D
3E02FE23
3E07E3AA
BD22867D
3DA71392
3DF21452
3DC5AD9E
BD15BACF
BD7A0680
BC8FBA43
3CDF64D5
BBF9E29F
3D492A35
3DF99E1A
BCCEB370
3DA45D32
3DB7A1C4
3DB6ECAF
BC852929
3CEBC007
BD9371EB
3DE9A26C
3D3D92B6
BD9A26B3
3B72717A
3C7C600A
3DB053E6
3DF2C982
3E146913
3DBFBD17
3D5B36E6
3D288E8A
3DACB7D7
3CE6986B
3DAFED78
3D58B929
3E0614B2
3DAB0F2A
3CEB61E2
3D8C74A3
3C06A80C
3D02E46F
3D904BD0
BC05BDB0
3D0546C5
3D8CB6C3
3DEC0846
3D4E4B1B
3D79148C
BDC9A76F
3D16513A
BCA2355B
3D92F804
3CD4CBD9
BCAE65AD
BE5D488A
BDB6A279
BE19EFDD
BD41690C
BCDBA3CB
3DB49217
BC8F3689
3A9F28DC
3B1E61EE
BD91FE5A
BCC2BC4B
3DA49F5C
BCBA21DB
3C196B67
BD011F3E
3DA7E01F
BD881292
BDC5F3A5
BDB24FA2
BD3D3C83
3D19FDBB
BD181481
3CABDEFA
BCB0CB5F
3D304630
BD735001
BD288603
BCB359F6
3C4F74DB
3D7D4EA4
BCAAF881
BD7AAA04
BB814D7C
BB643881
BCFB2B81
3D2D227C
3D5BDDDE
3DB15AD1
3DA3E605
BC851CB7
BC865381
3DAFB291
BDBBCDC9
3D9C467B
BC9A5B1F
3D60063D
3C81CF27
3C40D36D
BD1309D2
3D2B59C5
3D270905
BD8D412A
BD248874
3D4052DD
3DD3D443
3BA389A1
BD23C922
3DC1C47A
3DA3E84A
3C88B759
BD38BB45
BDA7D8CD
3D9816C2
3D71AFDC
BBB4D795
BDB201B6
BDBEB95D
3D3C658C
3DD04678
BD780C9D
3D0090E5
3DE80171
BD87BBF4
3DA86137
BD39BF33
BC022E49
BC4BCD18
3B02D443
BC6273D9
3C5C4018
3D63B911
BC513290
BD7B29E3
3D98AC5B
BD89D54E
3CF91B1A
3DB5CD70
3CA04D13
BD442481
BC8FDA2C
BD1BBC3D
BC13033B
3D853574
3DE232CF
3E086ABC
BA27FB49
3D6DCFC9
BD332759
BD0F2598
BCACAD84
3CA2468E
3D6BD8F8
BCEE3796
BCD25373
BD71816D
3DD08193
BCDD11A0
BD3EF79C
BC854A59
3C1F5FA6
BCB4FBD8
3DA10104
BDF1AB06
3D8E7B67
BD70B7B0
3DE479C5
3BA2F393
BD94051A
3D32F66E
BD3FF413
3C9A760F
3DC30C69
BC49D882
BC992BF3
BDA58F8A
BD5B9FDB
3CBCA565
3D95A837
3DA4D1FF
3DF21C2E
3D96D774
3CF367F8
3DC8F652
3DD4BB0B
BD70E85A
3C9A8818
3D3979DF
3D85D5BA
BDBE0113
BC8FA533
3D53FF1E
BD63E3A5
3DB91296
BCDE6B23
3AEE3319
BD479F05
BD52380C
BDC38C3E
BD22A2EE
3D75BA3F
BD1C9E1C
3D8A1E8D
BD2B723D
BBBA42F2
3D8F006E
BD9F43D8
BD292EA6
BDC5443C
3D38FCF9
3CD8E42F
BDC6D727
3DC81253
BD988B0E
3D0692AA
3DAE4062
BD9D9DFF
BD4B0DEC
BD85272A
BD78A1D3
BC9FA6B1
BC4A1C42
BD8157AB
BDC27923
3D739400
BD0E0229
3D7632D3
BD41C1CC
BD2248A2
BE0F592A
BDF5420B
BBBD5B1C
3D63E018
3CA5794A
BD874094
BD822839
3C3BA53E
BDF820A8
3D28FD69
BCA1D2F2
3D3A7B75
BCFC489C
BE023B9F
3B94C0DE
3CD49171
3D940688
BD870B90
BD94CE0D
BD935404
3C99854D
3D084D98
3A10BDB4
3CE858AD
BC97F9B4
BDB6B9A3
BC19325B
3DA87B5A
BDB25E5C
BD910853
BDD7DF86
BDB83885
BCCBD50A
BDC1A58B
BCC2F730
BD04FB5F
3BE8E8AA
3CC60DA0
BC4B970D
BDD3BE4F
BD54F499
3DCE38EC
BC11C088
3CBCD2C4
BD5CACA7
BCDBC981
3DD5283F
3C18045C
3D449EB0
BCC8A83C
BDC6F210
3CE2F916
BDC649A5
3B87D85D
BDC26DE9
BD3C2806
BDA54FDE
BB61EB07
3D421A91
BD6784C7
BC8DF785
3C92DD23
BDC8F743
3C967159
3CDE9934
BD7F957B
3D78727D
BD599939
BDAEFF62
3CFE83F2
BBD98D83
3CF25233
BDAC648F
BD0B904B
BC88F013
BDCC0989
BD993C2C
BDAF166B
BDAA3102
3CAE7564
BD30B8C2
3C7D28BE
3D9EBF27
BD79DC28
BD7F1984
BC016109
BDDC45D0
BAE903E4
BDE52550
3D850CAA
3C99EB29
BDB2CF7E
3D1A38DA
BDBF4A27
3DAB5087
BDCCE46F
BD3E0EA5
BD4ED0CC
3D4F7CBA
BDD402AE
BCD5695C
BDB98EAC
BC486121
BD7F922B
3D71DAB4
BD2D9439
3BC1A6E4
BCBE50C6
3B41F5BE
3D93ED0C
BD8E1263
BDE650C6
BDE8589C
BC16D9CB
BC99B8F3
3CBCB367
BD76F4FD
3D8DD12A
BCE09EA9
BDAA6A95
BD7DA687
BDE0B4DF
BCA6D702
3D70010D
3C4CD6C6
3C34797E
BDA38882
3DC08ADE
3D806469
3C8DC9AA
3CF105FD
3CA4A1D8
3CE74D55
BD1B804D
BD97A1FF
3DB6CD22
BD2F445C
BCF267DE
BD93F542
BD07A278
BE087AE4
BDAE7D17
BDCEB23F
BD3B3535
BE1398D2
BE104D22
BCCEF356
BD1A4C87
BD842EE6
BDADED62
3D86CB59
3DA51772
3AECC377
BDA44F13
BD0267B4
3D0665EB
BCAE8835
BDBE01D8
3DB37BDE
3D914804
3D4F1F93
3D7F4082
BCE09E03
3CCB5AC0
BE02160E
3D5E2AD4
3DA19722
3CF5A6E4
BD906EBC
3DB920C5
BD7D33D9
BC082A7B
BDA59188
BD74AA03
3D93C835
3CA84C20
3DA30F44
3D582A9A
BDBEE215
3D70DBB0
BDEFAB34
BC8A403F
3D991FEB
3B68B491
BCE38BFC
3C8C4785
BD5E700B
BD620A6A
BD4BBF3C
39EBA9BE
BC36B941
BDB87ACC
3D87C89F
BC54926B
3DA9064C
3D05083E
3D5D443C
BDB4345A
BCF06ACA
BD64B9BE
3D9749D1
3D89F36B
3CFF57EF
BD4D5070
BD64CF08
3CDDA14A
BCC89D25
BE241322
3D6BA66F
BD63CBF8
BD8517E0
BDA636F7
BD2D688B
BCF90470
BD0D7175
BDE62DA1
BD06A0C3
3CC7717C
3D1E056E
BCD9C32F
BDBD02E3
3D86B0B9
3DBEB630
3D06B821
BDEA3D6C
3CDC5CEE
BD016254
3D2DED33
3D37935F
BDAB9169
3D9E939C
BCBDAA12
3D1C6786
3C37249C
BDDA5FDB
BD9EA90D
BD09A48E
BDCA4EE9
BD87BE06
3CA91D25
3D69D0AD
BCEBDDDD
3D64A47E
BDF4303C
B980EC86
BDB8CB23
3C2ACECD
BD118EAA
3D74277A
BDC3B4FA
BD4DA1DD
BD277B81
3C3D6CFF
BDD9A80F
BC956488
BDFD9251
BDB0DFE5
3BC338B5
3C5AE1BD
BD243CD2
BC526B19
BD054D34
BB5F2534
BDE4584E
3D99FB71
BDCC6E38
3D0B00AE
BD901B23
3B8D9EB4
3D813471
3DB20A06
BD27D95A
3CC386A9
BDD08FDC
BD3EC5E6
3CF56BB5
BD7D11D2
BCEFFAF0
BDD0451D
BD34FC80
BD4D5259
3D9CC640
BCF6EFFB
BCA7D255
3CC4CD0A
3D8A7A47
BC19DAAD
3C32952C
BCB50823
3CE1E37B
3D8BC121
BDE452F3
BD8F3FBA
3D8DA99B
3CA1D3EE
BD0AA584
BD86480F
3C2DC0D6
3DA93352
BDDEEBBD
3D13648A
3CBA5CC8
BD660C6F
3D1A93C4
BDC643D4
BCD3E98D
3CF09A3E
3A5F4815
BD1C4BF3
BD98F7AD
BD326DE8
BDF5732B
BC4FB7D4
BDC390B2
3CDFBE7E
BDB765D2
3C379359
BBDEA778
BD940A53
BCAE8863
3AE35417
BDD2C0ED
BC43E57A
3C1DE06B
BD4EB5B3
BDBC8E44
BD8ECFC9
BD38507E
3DD7D783
3D34C596
BD6F9E29
3CD19413
BD8E41CE
BBF8E0EC
3E373DEE
3D94D331
3D9A8C4D
3DFDFF55
3B9F59BD
3D99E97E
BD489D5F
BDAD838A
BC1455DF
BD899458
3D108A7F
3D24CD3B
3D94BF2E
3AF4C451
3DD166AA
BD5DB8E7
3D2FF483
BD80A849
3DC36000
3DB86A0B
BD62B13B
3D124A7A
BD260775
BD223123
BD5A6349
BD2D0398
BD802891
3C57CB48
3DBF13ED
BD172CFA
3CFF9A65
3DC3D8B5
BB1C84F5
BD5B1386
BC67626E
BDBDDC22
3D28078B
3D37CBFE
BD890AA5
BDA79ED4
3D8F065D
3CA1F76B
BD0942C6
BDAA07E2
BD7EA085
BD9EA975
3C4DD678
3D417F2F
3DB75FF2
3D6713B7
3DAC1D90
BDDE68EF
3C604309
3C265741
BDB66761
BDEEB2B5
BC9B68C6
3D227F80
3D5AAA7E
3D9A70C2
3D8257FD
BD6B113E
3C0F1D3B
3C774179
3CD02879
3D69A2E7
BDA7EC0A
BD7FC41F
BDDA160E
BCD6EF3C
3C859536
BDB4288E
BD2798B9
3C000719
BBC12E15
3D933DD7
BDBA31BB
BC0E611A
BD9CF435
BCEE7779
3D338ADF
BD9837D3
BDCD567F
BD82627B
BD2CF34D
BE2CC6DF
BDBA8F4A
3C4B0430
BDA371B3
3E4C063A
3DDBDA64
3DF217B6
3C954D6C
3D118BD9
3CCE29E3
BE0FF16C
BD73CD06
3CB51590
BCEA186B
BD803F8C
3C466E94
3CE97426
3C349063
3DA31A02
BC619BA9
3DA38138
3CF79B8E
BDDD53D3
BDF574B2
3DB912F8
BD4927DB
BDD77C1E
BC73E2BE
BD74FA09
BD4EBAA0
BE000547
3D4F68A7
BDF469D8
3CF2092F
3DA2149A
BDAAA3D4
BCE71764
BCAFB844
BCECFECF
3D8AEA12
BD564C4B
BD71ACEA
BB285083
BD0D4F28
BC658315
3D17756A
BCECD23B
BD201D97
BD91ED41
BDB09AE2
B9D653F9
BDCAF4A0
3D933BAB
3D5D6B97
BBB74B3C
3CB34358
3D95BB0D
BD9DACCB
BD7D27E2
3DB535EE
3DBB536B
3D50EC04
3D3E4C4C
BCD5FEE6
3CA7BA44
BC614000
BD85FD6C
BB371E6B
BDA2074F
3DD0DF6C
BD058B2A
3DE65860
3C705F92
3D57EE1E
BD29B604
3DB63EF7
3D82AC58
BDEC61E2
3C9C83BB
3D50CE4F
BDB94EC7
BCC38CCE
3D7D9D06
BD5C9A04
3DB3D3A2
BBA3C78D
3D0F04A2
BD2EE330
BC93CB84
3DA06B2D
3D1C437B
BD08000C
BD92D877
3D845E6E
3B4B1366
BD5AB450
BDD468D7
BD00C8AC
BD24BFAF
BD4ADBC1
3D39CE03
BD7F03B1
3D2514C7
3CCA8886
3C90503F
3CCC0915
BC855ED9
3C75E510
BC28B786
3D4333FE
3DABF411
3DB5B2F0
BD3709AF
3DB6E73D
3DBDD3FA
3B42BF3D
BD9C5B89
3DF60112
3D8F3B8C
BD3F6C57
3D35878C
BC753896
BD8427B9
BC2AD76B
3D89C84B
BD26308D
BD11140C
3DDCD00B
3B96B5C9
BD57866C
BBDB0232
BBB48CB4
BDC3D076
BD0AAD58
BD911CD8
3D40A24B
3D58AC5C
BDA8602B
3D0E822B
BC0B0BC6
3DC55970
BC0C48E0
3D891CA2
BDD2D6E8
3A0CE607
BD42C8E1
BDDC06B6
3D7178AD
3D4285EE
3BEDD38B
BD3A6DE0
BD7BE3D9
BD17F6B9
BD4E5E22
3DFEEA72
3D83FD74
3D8B9878
3DB652FF
3DC5C14B
BD4E561B
BDB7523D
3D69CD0B
BCFBE084
BB93A9BE
3D687457
3D13AB97
BD328ACA
BDAA49DF
BDA2D5C1
BD0636F2
3BE85FE1
3DBBFB35
BCA2B7EF
3DD11787
3D861F44
BD52DC9B
3DBA8333
3DB31540
BC911DBC
BD7BB4F1
BC993402
BB6237E0
BD8EB283
3CD8F9DF
3D5F6BBB
3CBC9E70
BD0343E5
3D3E1563
3CAFE0D8
3DACE7CC
3D707168
3B2C0137
BDC1C851
3DA48A28
BD68FC10
BC7B6F03
BCCD7346
3D40FD23
BC675C41
BC4EF967
BD2B6ACF
3DDC6425
3DE9A2B7
BC66E652
3CDFCCDB
BD9B4088
3D98FBD9
BDBB8A17
BD39990A
BC8AAB4E
BD5F3A1F
3C32A67E
BD840AEB
BDADEEBB
BCE9A933
3B87C76B
BD119D3B
BCA80CBE
3D6476AE
3D76A839
3DDEEC8D
3CB56C6D
3A35CCDF
BD9A2910
BD900966
3DDB7068
BDB6A11A
BB359893
3C814A9A
3D62624D
BD6D5483
BCF5B43E
3AD87EE3
3DC816AE
3DDF72D9
BD040133
3D3B8C1A
3DCF212B
3D9D1896
3C87B10E
3E0D6CD1
3CB66758
3D8B8A15
3DE50427
BD621C24
BA56DCDB
3CA09C43
BC8BADBF
3D8670E4
BD94BFAB
3C322928
BD8A97A7
BBEADF60
BC1D65DC
39BAD8AA
3A7131E1
3D41DF44
3D893E69
3D2113D2
BCE822D0
BC1E2D2F
3D8AA29C
BA9E195B
BCC26730
3C1E0FFC
3D9FEB0D
BDA79C5E
3D326A82
BD5BAF6A
BDA18021
BD153EE0
BC4C9E33
3CA55580
3CEA28A4
BCC3998B
BCB360DD
BCCB3F74
BDA705E8
BC740050
3D818F09
3D775454
3C8D92A1
BCCE25A4
BB8D258B
3DCDE2FF
BD343CCB
3CED1B19
BDB5618E
BD6555A4
3D32C2E3
B9DC1280
3DADB793
3DBC54E1
BC91F204
3C5981A8
3DD43D24
BD4B10AA
BB008CEA
3B817194
3E214F11
3C0CAA00
BC8319B9
3CA49F08
3BAA16D9
3D864F01
BC33195B
BD8A62A1
3DB1D4BD
BD7132C4
3B863486
BC6CFA01
3DE3BE9A
BDC10795
3D60D602
3DCC202D
BD61AB85
BD61C24A
BDA8ED41
BD328A3A
3DE87A96
BC13A075
3C8BB703
3DCC8DC8
BBF976A5
BCCD9700
3C6B215A
BD5BE477
3D21EBF2
3D7F727F
BD10490F
3DCF1A16
BDBC3577
3DD87DC5
BD358456
3D26D00C
BD9B8948
BBF9843D
3D450F99
3CD25633
3D923FCF
3D82F0DC
BD819D82
3D732B20
BD95FE8C
3D9CA51F
3E061294
3D143B3F
3DA84642
3D5BFE0C
3E207073
BC896FC3
3CA839AF
BCF3CAE9
BC3F380E
3D82D030
BDA42887
3DF21930
BBF324A6
3C254908
BDA0FCAF
BDB7668D
3D90762D
BD964FD2
3D90CFF7
BC9E1EAA
3C3EA29A
BDBA427B
3C9ACFF4
3DEF5D2F
3C4CF496
3D419594
BD831992
BC5085F2
BD83A560
BD5ABE34
BDB767AA
3DE1012A
BD65C63B
3C0A0A0F
3D95E62B
3DE9F6EA
BD5180FB
BD0D18E2
3DC9B8DC
3B1B4F00
3D928754
BD5501C7
3D68EBE8
3D90106B
BD9CD50A
3D2BF919
3DA53DB8
BD1AFE0D
3DBB6397
3D8C375D
3D85A360
BCB09321
BD0DFCC9
BD818CA6
3D4A4996
3DDB9FD8
3DB053F2
3D6955F1
3E013456
3CAAC098
3DB862A1
3D1D353B
3D777943
3C3F0C91
3DD86F79
BC7B9CC3
BD218CA8
BD06B69B
3A41841B
3D446364
BD938CB7
BD92BE76
3D8B0DD5
399B0A92
BDA9223E
BD34436B
BE7A94E2
BE0D8DF2
BC3D243D
BDE98CA6
BCA9F104
BE7A76C5
BF160B38
BE97C5D0
BE4AE397
BE074799
BD6CBD45
BDA6EEB1
BC90B086
BCA2A78D
3C1C1568
3CCD56CC
BD18C707
BE0747AC
3D0B0BA3
BC19F2DF
BDF2ED60
BC87FF84
BDCCCD65
BDF3DD92
BE2709D1
BD2852D8
BDBFFFC7
BE02BCFF
3CA67EB3
BDD39165
BD129807
BCEFFE5C
BC6C6B09
BD548025
BCC90811
BDBF7EDC
BD5FF876
BD9BBEA6
BDE8B431
3CA7DD43
BD5F83B9
BD2898F0
BDE8E5A7
3D71E010
BC916013
BD20BCEC
3D54F5ED
3D832F4D
BE0098E7
BD8D395F
3CA4FE31
3D9EAAA9
3DBCF1AC
3DD2A4D7
3D970CDC
BCBF0800
BBA4C213
BC137FB2
3DDD945D
BC9218BF
3CBD48B8
BC0E9A8E
3CE97B5B
3E279670
3BF23052
3DC53EFA
3DF90BC9
3D8D5383
3D754A0A
3D766B33
3BA44232
BC281034
3D4A4FF9
3CCBFA0C
3E014959
3E19A676
3D35C83E
BC2A165A
3DA03CE5
3A9CEB68
BDB53808
BCF1700E
3D8F4C82
3E06BC97
3DD3241C
BAC08767
BC895F3E
3D31F885
3DB53B4A
3D3E2FF6
3DF67279
BBFCBB88
BD434600
3D725C31
3DBC4B3E
BE384AB2
BD4CB3E0
BD860E55
3C83B316
3D93ADC2
3E672EE1
3E4AF9F8
3D1037BB
BB9C337C
3D904E4F
3DF215A5
3DF58E11
3D4F9935
BDAB00EA
BD5D1665
3D097F1A
BAB95564
3DC5EFF5
3CB624B8
3D0467F1
3BCC5CBC
3D0B10A0
3E3B8C3F
BD9587D8
BCE3A009
BCFB2848
BCFC9ED8
3CBD9C44
3CEDBDBA
BB972B7D
BD879301
3E356087
3E3FF62A
3E17669C
3E1F060A
3DC5B1E7
BC8B4CE7
BD01A3AB
3E23CAD2
BC14FC65
BBE9CEAB
3B92996C
3C6D25D1
3DCE9EAC
3D68498B
BC298B74
3C8D6425
3DBFD717
BD549553
BDAA43CD
BE126270
BDE6C686
BDAB4540
3C88AA9F
BD0A0429
3C1A469F
3D8624ED
3D3DEBE8
3D93EA6A
3D9345F8
BD93AB11
BD967368
BD522134
3DA32D3A
BE347FEE
3C08A90A
BC44D03D
BE2AF60A
BE4B8082
BE344338
3C8F0BD8
BD3D9727
BD90CF7A
BD181F23
BCE65E84
3DE28976
BD886465
3D795B34
BD4703C1
BDA3A6D7
BDB8F5DB
3DCB65D5
BE6F3C0A
3D4CA8CE
BDBDE7D6
BDBC56AB
BD2A78C0
BDE1188C
BD835EDA
BE27A7E0
BE2EA0AD
BDE92407
BDBF118B
BE145BAE
BE22A6A4
BDCC3E2A
BE677D8F
BE71695A
BDD237C9
BE37F727
BDDB08F9
BD6E446E
BEB23E80
BE7FAD02
BC5DE08C
BD3A2DE1
BE247237
BDED8850
BDFF4C11
BE67029E
BC88697E
BDB80D7B
BE257503
BE518410
3BFD7623
BD5F532A
BE26BCD0
BE1CCC7E
BE2FF872
BDC092AC
BEA62EE1
BE571700
BDEFAE90
BDA5722D
BD4647EB
BDBC87CD
BDF742E8
BC8538C6
3D8A6811
3C1B4F94
3D86D507
3DD6708B
BD77F00E
BCE5D585
BCE18582
BDA2ADC3
BCB315D9
3D7E8536
3DB88CFF
BCDEEA2A
BD0D210B
BBBF5ABC
BBA3E96E
3DA9C4FB
BD8719DE
3D982624
BAED0E76
BC74F66E
BBEDEAB3
BE36E01E
BDEB474C
BDF3E72B
BD2E8B8C
BE196528
BD21BB62
3CCF1DF6
3D01571C
BDB6B14A
BDDEC24F
3B051424
BD02D280
BD12219F
BE09AE47
BD55BDE2
BD40CB47
BD85072C
BCFE1866
BE038163
3D3DC9D9
BD261946
BD87C06A
3A88C459
BDBE5929
3D6CF422
BDB18705
BD6C0415
BD887B01
3D90F45D
BC765A50
BDB465D9
BB26A74B
BD7C678D
BE0689F7
3D4F11A0
BC8F93A2
BC89CDC4
3CB980E7
BDE66FE4
BD2269C3
BE0B615B
BCDAF196
BCD99C9C
BE03B44D
3C05CA36
BD924E9F
BDCFC6D4
3BB14D21
BE12E1D2
BDC9C461
BDC0D8CC
BBDC580F
3C990BFC
3D63E7D5
3C5E05AD
BC4B85DC
3D87D08F
BDC8B155
3C69C82B
3D3A4EA8
BCF73E43
3D98443B
3D206168
BD0447CB
BD707FDB
BDDEB007
BD1D97E6
3D1C3539
BD712FB2
BDB8385D
3D178DF1
BD1BCE87
BD89BE20
BD3CA318
BD013F80
BCC7DFEE
BE25EBC8
BDE3D0D2
BE545A09
BE3C7B39
BE08B315
BDD440CC
BD67638B
BE640672
BDD04173
BE405EB9
BD2A6FBC
BE0AFD50
BDA492BC
BDA33EBA
BD17976A
BDBB4D67
BE27FEA1
3D4D1E4C
3CC74D42
3D7F5EA1
BDA8E592
BCC33B28
BC1D4117
BDA6C4B0
BE0F769F
BD1317DE
BE1B1A3D
BD9D7ED2
BE32971A
BDAB7F14
3C35C27D
3CBEDC88
BE099773
3CCB86C7
3C19D447
BD636073
BD97B76F
BE07E398
BCF6E647
3C441739
BD345A0D
BD55AC35
BDB5EDAF
BD8D6727
BBE477A2
3D83E646
3C7A0951
BDCDE580
BD80EE83
BC45EEAC
3D798470
BD30C74C
BC9E0A58
BDB3F546
BCDB488F
BBD7D32C
BD820AB4
BDD4CE28
3C501FDC
3CEC4523
BDC23CFB
BD13E2C4
BDCADD0A
BD810801
3CBD4565
BE13ACDC
3C816368
BDC5B0DB
BE2E464D
BEBFCDAA
BEA6F6E3
BE8F4F7C
BE6977FE
BE22B260
BE2458EE
BDB1B38D
BDE73047
3D3AFF92
3C9B340C
3D1B1094
BD6460DA
BDBAA641
3DA60692
BD7F206B
BDFB1101
BD7CF72C
BD3B1693
BDE1E2C3
BDDF0F48
BE0F2E53
BE1734EE
BDE137D6
3D1AAF06
BDFA1806
BD1C91B4
BE11AB8D
BD3275A8
BDD4B890
BD331D1D
BDA4AD5A
BD4C2A46
3CE2EC24
BDA7E4D5
BDDA1B1C
BCE6C5EC
BC46DA71
BDBEA56D
BDA9F82F
BC797504
BDF83F43
3C6C9807
BDD001A2
BB0AA9A0
BBF28B0E
3D5D5E44
BDC6E073
BE3AE3CB
BE3D1348
BD8D56D6
BE14D963
BDD4BA71
BDD4B5ED
BDA62F1A
BDE9C9EF
BD067EC2
BB7C49C3
BBB1AAA6
BC47E4D4
3D94ECF7
BC1A51D8
BDEA35F4
BDC9618F
BD5E2EB4
BDF7E6E5
BDED4506
BD251036
BBC047F4
BD81BA6F
BC9CC539
BB25FFED
3D255A06
3CC30321
BDEC892B
BDB4A767
BDAC073A
3D2D1266
BD69817C
3CD8AEBD
BB5D1DDA
BD987662
BE02A9B9
BDC110D1
BD6A14C0
BCFDE8D4
3CC6ED18
3C36F55D
BD1B9DBD
BE2F122C
3CC3378E
BDE3541B
BD8F8CED
BDBC63DD
BBB258A4
BDFBC650
3C62778F
BE0B4066
BC398375
3D0711D8
BB9B1017
BDDC78FA
BE0E6ABC
BDFDBFE6
BDB36ABB
BDF88FBB
BE1F9461
BDAE3863
BD63EC84
BDFDAED9
BDEC11B2
BDCB2164
BE106CB4
BE23DEB8
3CD93A6C
BE195A60
BE12C6A7
BE4D58E5
BD8D477D
3C43C997
3C5BD400
BD8BEAD9
3D82C983
3D8670C1
3C9953C8
BD9DECFC
BC31142D
3D75BD40
3D651DA7
BDA9C705
BDBA22C7
3CF4BE3A
3B93883D
BC50C441
3D9D6F80
BDB8A949
3CB1048C
BD9EA825
BCCBF10F
3D3AEC8C
BD328297
BDC3DA4D
3D8F03ED
3DA0E4F0
3D32C58F
3C00BEA7
3CEAF1F1
3CDBE4CB
BDB81110
399C98FD
3AE36EAD
BD2A4A7B
BD7C6574
3D404BCC
3CC16115
3B6CB6B3
BD6106DE
3D468A5E
BD86E264
3D9E5288
3D7AF467
BDB757CB
3CA2A314
3DD40CAD
BC06E87C
3DD0D5D4
BCF24FC1
BD916809
BCAB18C5
BCE8985A
3D139C1F
3DA7DFC5
BD2DDB54
3D9C781B
BDD4278F
BCF97E2A
3A3786B4
3DB50C7F
3D9EF339
BD60ACFF
BD9DC868
3D2E6C56
BDDAC0DD
BD9B68C6
3B70F726
BD49BCED
3CB845C1
3DAFE3EC
3D4C3EC2
3DA6088E
BDA0B7FF
3CDD4EE9
3D669EBC
BD9047BC
BD4E74E9
3D901819
3D8BCD6E
BDABE387
BD7EA848
3D964A0C
BBADDD0E
3C387A23
BD8638C0
BD47509F
BC8C5024
3DCB9017
BDA0B7C3
BDDAD523
BC649871
3D9CEC06
BCB24864
BD199C19
3CEBDCC3
3D3FF90B
BB4911E3
3DA789B5
3CAD611A
BDC8462D
BB3ABD51
BD0D2E3B
BC0ABEBC
3D4CCD2A
BDE7665D
3DB4B7ED
3DA888D5
BD1A5228
3B7A51F8
3DCC1ACF
3D81774F
BB2D27A4
3D15A821
BDC10711
BD8ACBBA
BB7A1F0B
BD31E6A8
3D8A0C88
BDDC2961
3C99D79B
BCD8A27B
BDA29AC7
3D9F791C
BD8486C5
3D7E64E3
3D4E6788
3CECC52E
BDC161EC
3D7B6FA4
BD563348
3C817FF9
BC793B0D
3D13E920
BDA85B95
BD62A64C
3D5A7036
3DB1B070
3D2FB530
3DA2F983
3D1A2ACF
3BE7C5BD
3D313C4D
BBD2C3C5
BD71636C
BDBDB46E
BD9A7FAA
3DC9AB5E
3D74F79A
3D961F30
BAF00C35
BD6A24D3
BC826BC6
BD8186A4
3AE32B79
BC853F64
3D23C993
3D1B52B7
3C0A45D5
BC626004
3DAEA7DB
BD18B2DC
BACE1534
BDE061B0
3B6F66F2
BD65DB1F
BD1C900C
3D9B2D81
3DBE8D30
BDCAA799
BDB2F444
3D1FEECA
BCB232B9
3D90F9EF
BDDDA3C8
3D26213E
3D0C2244
3D8F663F
3DBF422A
3D80D2A6
3D8DAFFA
BBC53B85
3D8C9EA4
BB9DE076
3DE846AE
BDC3F0DC
3D3B2607
3DD48B0E
BDBF03FC
BDA6E7DA
3D5663DE
3DC2CD78
BD4E882B
BDCB6729
3DB4847C
3D4ED6EA
BD1C333B
BCA3F8A1
3DD6AC4C
BD8A64F3
3DB588F2
3D96DEFF
BD9833BE
BDAEE415
3D34D353
BC766391
3D6D704D
BBC13D4B
BC4B408A
BD4E7631
3DCB0A73
3DCFB6D5
BDB3455A
BD3E1211
3DC16447
BD96A81F
BD9F2024
3D087CCC
BD88AC26
BDC75FC0
BD3B35F4
BBABBD3B
3D634010
BDC90BAE
3CC69DB3
BD2E53B0
3BC042AD
BDD6D0F2
BD14F361
BCF4B4A6
BD25F3A3
BD806C82
3DB4DB07
3D9D1803
3CD0497A
3D0BC831
3DB3538F
BCBCCA7C
3C5894A3
3DC871BB
BD8BBE7E
BD27CB52
3C978710
BCCF703B
3CFF3A8C
3DD30065
BD6641F0
3D8657EA
BCC39501
3D73D66B
BCD101F9
BD23F505
3CA095D5
BDC32909
BD3FF04D
3D35E6E2
3CBD83F8
3DADA75F
BD16E89B
BD6EC60E
3D13AB22
BB322798
BD8BE1E8
BD593C65
3DAEA38C
BCB2D70D
3D36BEA3
BD5BF448
3B041800
BD966FCB
BD03ECB4
BDBC33B2
BDAD1EDA
BD802653
BD8A5871
BDB7BC14
3CB169A8
3DC9C707
3AB20614
BD898CA9
BDA11C28
3CA9DF53
BDBBBCA9
3D47C08B
BD986017
BD900D98
BD2B2838
3D3BC3E5
BD8C0EDC
BCCA8BB9
3D911743
BDC6D146
BDBDF5ED
3CFAF886
BC084F42
BB04A11C
BC596578
BD95FBC9
3D684BC7
BDC25C87
BD82F8B9
BDB7EFC8
3D8E338D
3D87B060
3D6298AD
BD8C51B6
3D7D0592
B99E6D41
BD9DE921
3D191D5C
BDD6636D
3D121C54
3DB873E3
BDC560F2
BC104105
3D8DFCB6
BD1369E0
BCF61D98
BC9F3A71
BDA69DC7
3D92E418
3D8027C9
BD6CBBFC
3D812901
BD80C405
39D702B4
BD3DF797
BCEA4A52
3D64048A
BBFFFCFA
BD8BA4EE
BC60B9FF
BD921310
BD7548DB
BD2A302A
3DA0F769
BB6E270C
3D4030BD
3D5F7823
BD0C47C8
3DDD70CB
BDCC1B62
3DC49198
3CCFC3A7
BD9D5217
3D0D900A
3D31BEFE
3DB04331
BCEF6DCC
BCBD79EF
BD63E75F
BDCE4E41
3D3AE622
3D14B6B5
3D60257E
3D8C91A1
BC292F7E
3D7F2200
3C41EE65
BCEE4418
BD4B4C60
BBE30841
3D70E072
3D98F296
BDBE173A
3D2BDA2D
3D8D3649
3D80A71D
3D9BFC09
3CA8A4C1
3DC2EC22
3C32AB1F
3D836846
BC47C241
3DA98B9C
3D00C40B
BC3CFD00
3CE6EF89
BDD43639
BD238D9D
BD9F8ECA
BDCD95B7
BD44EEA5
3DA00844
BD5B049B
3BF3B15B
3D7C158A
BDB5E5ED
BD746893
3DA0524B
3D3F64A5
3D0609AC
BD0A5175
BC89107E
BC1CFFBB
3D50B114
BBF790A7
3CB212C0
3D8A68DB
3DD46BDC
BD10C481
3CB48F72
BD892DB7
BD041F07
3DC90D6C
3D8D7B49
BB89F33D
3D1F7F5F
3DDA2BC4
BB7A2CF5
3D611E81
3D76DBB9
3C4600CE
3C8C4ABF
BD2F9F10
BDA6AB65
3BDADD72
3D9A5AF6
3CB01836
BC488BFE
3D36AED1
3C378BE7
3DBF4824
BDA7DC65
3D123EA0
BCA24B20
3CC4938A
3D439615
BD7EBFAD
3C0FF967
3DDA007D
3BEF553A
3C971F24
BD8CA75E
3DD71C8A
BC2D26ED
BD626A1A
3D843C94
BD848BCE
3D91354D
BDA439C8
BDCBA0EC
3DC80EDD
BD587C01
3DE11DC6
3D60D015
3C3D14B2
BD22FB0B
BD89701C
BD77B65D
3DDC386E
BD04595B
BD82EBEC
BD6F7BD9
3C5F94CE
3CA29271
BD70216B
3D8CCD1B
BDA5EA74
3B7C0E3E
3C1E81EE
3DA1D4F4
BD976D51
3DBE6653
3DA5F331
3D43980B
3D202343
BD818B03
3D15EDC3
3CA18328
BD159827
BBC3D283
3DAF03AD
BDB44C9F
3A38A691
3D2DBD9A
3D17CBF4
BDB6EBF8
38771BD2
BD9B2D76
3B87E12A
3D1313B3
3DBE43D7
3CE3D772
3D462508
BDC1A50C
BD2FAC61
BC61998F
BBEB0DE0
3D089A96
3C9FAAF6
3DE27ACF
BCA1BAB2
BCF06D19
3D90CF9A
BD82184A
BB0FFACE
3DAE24DA
BDD2592C
3D5C3916
BC97C892
BC84AF65
BD9086E3
BDA655A6
BD013815
3DAD02F9
BCF1A4F2
BDA4D52E
BC74E04D
3DBA3D54
3D8F30A2
3DCAE5F0
3CEF4CF9
3BF69CAA
3D6C3C5A
3D5C3872
3D9EF2FC
BC11F47B
BE148EAD
BE445130
3BD57A52
BE07DC4C
BD9B07B8
BDAA2CB1
BD8F33AA
BF15C431
BE1BE90E
BE2A77F0
BDAAB2D2
BCB17F4F
3CB97B1F
BDFE22D8
BD9F4B70
BDB51E46
BDA4EA56
3C8213BE
BDA93E2C
BAD6A7F5
BD7975B5
BB72F48C
3C457514
3B7FDCE6
BDAC4835
3CBFC94F
BE042653
BD4BEC83
BD80B079
BBE6CF39
3C9EBC8F
BD15F6A9
3BECBFB5
BA9D5BA0
BDB99591
3CAA55BE
BC70B3B2
BDB3F782
3C341CBE
BDBE5DEC
3D50B5B4
BDDD03F4
BB80E7BE
BDC7435E
BD2E4287
3DAD0BF0
3AF7889A
3B4209B2
BD47933E
BCDD6722
BC4679A3
3DBF6756
BDB6BDC0
3D90E5AF
3C695255
3D7B411B
BCF31070
3DB11A9A
BC41E450
BD874923
3DE511D0
3CD981F7
3DBB0D66
3D248428
3C3F2F37
BDF0F10C
BC2CC176
3CD4E455
3DCB4235
BCD7DD30
3D60A95B
3E1A34C1
3AF756CF
BD2052B5
3DB88785
3D624678
3D9669EC
3E532EAB
3E00ED31
3E52E7E6
3E298F1C
BE00D7DA
BE02DA0D
3E0C3DE6
3D65EE90
3E71E6F6
BE58E1E7
3D8F9693
3E496C1B
3E4B0F14
3DC675CE
3CC57266
3D611C00
3C8EE477
3E32A9EC
3DA7E679
BD826CAD
BCB1BE26
BD816E36
3E148926
3DCFDFEA
3E126DD0
3DA51DFA
3D44EEAF
BD8331A9
3D29FEFA
BCDFFCF6
3E43C2E4
3E2744FA
BDEA34A2
BCF6D410
3CD57D11
BD24589A
3DCA3758
3E221B2E
3E3FFA81
3D77FC02
3C06667E
3DFBFD36
BB3EB104
3D8D2754
BCD8CD12
3DA088A0
3C9975CA
3D0883A3
3D40A649
3DB00A70
BC05C7BB
3E4BB5B8
BCBBB72A
3E2C3638
BCBEE126
3DB34649
3D8281C9
3DE6C60A
3E595052
BC379A9F
3C0D14E0
3D7A680F
3E219AF4
3E110572
3D06A66F
3E327424
BC0C7512
3DEBE5B0
BBBE1A31
BD6E7D7A
BDE1D5C5
BE16D0A4
BDCE8F3A
3DFE487D
3D640417
BCD50589
3CD90AF6
3DF596C3
3DD96C26
3DAC74F1
BD5D51E8
BD7AE77F
3DA5C72B
BDD3E97D
3BA718B1
BDB1DAF9
BE297990
BE0F24CE
BE072AA6
BDBEEC6D
3CE0BA97
3B3D3BBF
3C038084
3D5333CA
3C1E5C22
3D9EC9F5
3D630526
BD268212
3DB71C7D
3D983134
3C99A4A8
3C244756
3C2D8E5F
3E079D9F
BD1363BF
BDA09760
BDAEEF40
3C4145A3
BE741A19
BD273794
BDB853A1
3DBBFACB
3CA518A9
BE0161BD
BD5A9DAC
BC95C938
BDF3FE70
BDC4E465
BE179A89
BCD98663
BDB684E6
BEA2E8BF
BE51B302
BC241B71
BE17EE5A
BE276D88
3D272FA4
BD8ABA88
BE475774
3DE66CAA
3D17DCAC
3CC72D29
BDDDCBA5
BD995E3F
B99BD1B3
BCF6EAD4
BDCFE0F4
BDE7E01F
BD8B5344
BE4A704D
3CB4A140
3D648642
BE0B2A3B
BDEB9FED
BDC362FE
3D004E51
3D275B14
3D786CEB
3DAF8AC5
BC95980D
BC35BB51
3DB178F4
3DBAF593
BD0FA020
3E0CEC49
3B4DAEC1
BD9115CB
BC22B807
3DB77E27
3D5B5EFA
BD97AAEB
3CDC4A9F
BD313099
3D0A7823
BD9E6F12
BDEA91F0
BDEC6F44
BCC0CD49
BD8AD4BF
BBDF0D5E
BDD84740
BDE75580
3D67AB1E
3BCFF0EC
BCB0296F
3CBF8886
BD1DD088
3D39AC7B
3D979BDB
BD69DE71
3D58731F
3D846B05
BD30E994
3C83AD7D
3C1EDB60
BDE3F301
BDB7F2A2
3D8C24FC
3D85636D
3CFCF28A
BC569B28
3D88C7D8
3D5C09F4
BD9E747F
BCC16410
BD69936A
3D6D39AB
BCE3F085
BA578B82
BDD1F69C
BB1ED3B3
3D614C83
3D1049EE
BD408699
BDBF179A
BDA85FBE
BCCF1263
BDAEC183
BDD0768E
BD162108
3C8ECA44
BE0F0DF3
3D37F718
3B44A7D3
BD612A4C
BC716950
BC9012FB
BD53B315
BDF33F1F
BDCCE7D2
3D8CD28F
BD936997
BC9E1A74
3D41353E
BDC50386
BDBA6AE8
3D5AD05F
BD955499
BDC800F1
3CE8D5BE
BD47946F
BD19F4AF
BDB45C41
BD548809
BB90D0CC
BDCA8170
3D8E58A6
BCB9FBC9
3DB50940
3D7076C6
BDC1A3AF
BD79A365
BDA8788E
3CE739B7
BD9C8275
BD3D4B5C
BDF6D1B1
394B5FDC
BD15E5FA
BE0519C0
3A1B0967
BD455B2F
BDA7A297
BE56287B
BD0D118A
BD0F4BF8
BDC3621C
BB52BB91
3B0F388E
BD8708A3
3D086484
BE030214
3D2F4BE5
BD429E7E
BDCD0D52
3CD9836D
BBDB33B0
BD84C463
BE1E914E
BDE53B50
BDB29878
BDC23B58
BDACF432
BE1003F6
3C9AB147
BE081109
BD04EA72
BDB5808B
BDACD92E
BCB05B18
BD2CC2B3
3C8E1A0E
BBA690E4
BDDC009C
BE0038AD
3BF174B2
3D3D6EC4
BDD32FAF
3D884722
BDB11BB6
BE03FB73
3C344869
BC387018
BD7F3756
3DA69348
BCC8D964
3BFAB8BD
3CDF3926
BD9FF718
BCDA5A34
BCDE3CF7
BDCE510F
BCD582D8
3D759549
3D2BD519
BDB6006D
BB8794BB
BDDE6641
BD8F9946
BD8895A6
BDD03770
BD9501FD
BD3FE342
BEA0E921
BE4B2249
BE73499A
BE01C96E
BD935FCF
BD4EAB7C
3CF4F95F
BC36F9FE
BDBA1C95
BDB6F8D5
BE013854
BD385F2E
3D419015
3D2ABB9F
3CA750AF
BB6BE0EB
BB0EB6A8
BDF820A2
BD2F3B9E
3CF1D461
BDCCF92B
BD47CA16
BE0B2249
BCDDC4F9
BE054A78
3CCC36F6
3D0D98EB
BD36967D
3DA78C87
BD352F05
3A808CDA
BD6C38D0
BB52D336
BD55365D
BDC5CDC1
3D3B0DA8
3D82A753
BDF0CBBC
BE32727C
BDD8D504
BDA0BFAA
3D868443
BE07EC73
3D6E6A07
BD640676
BDA3BD85
BD1CF4D4
BD617F9D
BE4680BE
BD244044
BDBA9DE8
BE2AC720
BDCD0E14
BC39208B
BDF445DF
BCC3CF6B
BA66F9D3
BDE60DEF
BDE72182
3D69445A
BD95E8E9
3D34894C
BDBB8C7E
3D560EF5
3C47FD51
BD5778F3
3D2AC5CE
3D7D394B
3D2A2B09
3CE1DEEB
BD611A76
BB83C87A
BD4D5C80
BD0810AF
BD59DD9C
BD5CE76A
3D2845BE
BDF3B8D0
BD5AD900
3D3B40AE
BDB5128A
3C3B484D
BD705D89
BB137CCF
BC9749E0
BDC7C558
BDD723FD
BDF33782
BDB04661
3C4F8091
BDE470D5
BDDF3416
3D24D529
3C902695
BCA78616
BE230996
3D0D37EB
3D263017
BD863B1D
BCFEDB33
BD91D0DB
BDFBD732
BE10224B
BD9814F8
BDFC68CA
BE2B7D09
BD9C923E
BDC7828F
BDE3E05B
BDBC4874
BE4A2A81
BD621798
BE1683CE
3C01E403
BDD97DE0
BDDADA7E
BE365C3E
BD8B6BF2
3C597DF6
BD4E8B47
BE458959
3BA6B1B4
BBF634BE
3D577832
3CEBA78C
BAF4B9E8
3E195C79
3D22D6B2
3E4A447B
3ED5ABFD
3EA23A9C
3E41D1F8
BBDF4D9D
3DC7E7FB
3D1B22F4
3D493170
BD6C698D
BD8EA29F
3DCC0528
3CBAAAA2
BC9184FE
3D9B6269
3D86D972
BC326148
BB94A096
3E0D93CC
3E4C8F58
3E0AD560
3D8A7516
3CC69BF8
BDAE5161
3C282B72
3D0075CE
BD1279E1
BD30ABBD
BD918C6D
3D4D8640
BCE746E8
3D836875
BD33DC17
BD46059E
3DEF123D
BBACDFC7
3D78D700
3D25593C
3CC316A2
BD0BA6F2
BD995057
3DE7A85D
3DB5622E
3DA41AB4
3D4BAA19
3DFB3927
3A3FD481
3D2B4319
3B8F0715
BDC722E1
BBFD43C4
BDF76ACB
3D1CF0D7
BC5FF5D4
3D915449
3D22EBAB
3D06CEC5
3CC13170
BD9E2268
BD927510
3EAFC84C
3CA67FB3
BC91692C
BD828FD4
3D09FAC5
3D4B240F
BC51106E
BD276AC1
BCEE65C4
BE0F5383
BDC35FAE
BE313322
BB9B091D
BCA2BD00
BE2FBA64
BDC95169
3E34D4DD
3E760B35
BCA5DA7E
BE0C05FF
BD8A8210
BE4CED9B
BE337FE7
BE04FB21
BE0107B9
BC6862D4
BE2ED2A8
BDB0B12D
3D8E699B
BE6B09A1
BE588CF5
BE69F353
BE5D24DF
BD37844A
BDCB505D
BE4DE2B0
BE6A1701
BCF0A7DC
BE094D05
3E04A234
BDDB244B
3D562C11
BB0C9463
BD1EC3AC
3CF91E04
3B3FC1B2
BCFF5886
BCF84DA8
BD60BB38
BDD6A94D
BD9DB33D
BDDCA18F
BE296262
BDDC8195
BDC6F8FD
BE318D8E
3D89B39D
3C26D012
BD0BCFFB
BDDF0FB5
3C5FA56A
BC29A1A5
BDA684C5
BE498F2C
3CC17773
BD34A08E
BD37A382
BD2A2395
BD6EFE71
BC311A7C
BD8FD5D9
3D092867
BD6FAFEF
BDF0B973
BDC6157E
BD85578F
BC616EF7
BDDE04A0
BD7B35A0
BDB3159A
3D84E297
3D554823
3D0303F9
BDC1437D
3D6096E8
BDB80EE4
3BC3E888
3D966B0F
BDED0AD4
3D24F34D
3D0138EA
BD2C4226
BCE19CCF
BD2F6A63
BD0F63FB
3D743398
3E043B72
3DE28DE5
3D77449A
3DB9C5F0
3D329631
3DD50A5C
3DB39F91
BDBBACEF
3CDF9C96
3C1107D5
BDD00A33
BCED4965
BD7C55F4
3BD9897F
3D73A7D8
3D96300C
BDF6E47F
3D8847E2
BCCA2E8C
BD3C27D8
BD3EA69B
BD5A6F2B
3D87C7CA
3DE4D943
3DCA1449
3DF27F97
3DE3262C
BDAE4CF2
3CA626E9
BD5333C4
3D73C921
3D9261E8
3C31BF78
3DF35C70
3D2D603C
3DCE2149
BC310D9E
3E9B865E
3E2434FB
BBC014F1
3C582221
3DD499EF
BD10E64C
3D936BB0
3E1FD567
BE0986D2
BC986327
3E133AD7
BC6D532D
BD00E6A8
BD0CFB4B
3D4B151D
3C866ED4
3DFAC0A7
3D71F945
3DFED607
BC983C88
BC143FDD
3DF74A1F
3D96C21F
3D8BB6FD
3DD28DF3
BD3B31CD
BDC3EE18
BCD8265F
BC93D3D4
3D7589AE
BD925635
3D401BEB
3CCC86AD
BDD90627
BDB1C6EE
3CCD8047
3B90D213
3D4133B8
3C8E8BCC
BD0EB54C
3B0B8284
BD5A99EF
3C985552
3DAD1A29
3A5B4286
3E0C26DE
3BFC6117
3DE1F4F8
3D44A63E
3D59886E
BD4062F8
3B8B275C
38E848CD
3D202EA3
3D4B3754
BD9595EA
BD0E3400
3C4F3C9E
BB30EC3E
BD851D76
3D23EA0B
BCA78CB5
3D8B74AA
3D903F17
3DB34433
BD14DF81
3C86CEF6
3C9A2904
BD6E427E
BD3C90AE
3A41FD81
3D8F3037
BDA2589F
BD6ED85C
BCEA4318
3DB76BEB
3DF69E52
BD294C0B
BD4B7856
3D3EDEE9
BDA329AA
3DC1E5CE
3DF7CF4A
3D89A153
BC63DC55
3C9BE123
BDA0EEA5
BB79EED8
3D444787
BD2A8189
3CA6EF95
3DD15A11
3DE7E6CE
3D7A8324
3E0AC19B
3C514AA2
3DCC8665
3CBBEA32
BD1D9541
3C452832
BD8B6BB3
3D945F5D
BD8DDCD0
BD7B6600
3D97DF00
3DA03913
BCF6FC39
BCBA5A39
3DEEC0E8
3D94D626
3CDBDB8C
3DABB95C
3D90CCAF
3DC96F6A
3D42CC91
BD02B7DA
BD49EEF7
3D00C2DD
BBA61449
BBB80C82
3CF02429
3D14033D
BD0EF8A8
3C2555B2
3DC2A004
3B7F830F
BD0CD842
3E22A6C0
3B4A5EE8
BC20B0D1
3DDEFB17
3E1143CE
3E037F16
3D9E640B
3DAB43D9
3DBB2FE3
3D950940
3D936E0B
3D3EA68A
3D90C815
3DFE8B17
BC425A3B
3D8290CD
BD439B86
3D1C11F3
BDAA64D1
3DFFADF1
3CC51670
3E17D8AC
3DF83DD7
3DC2856A
3C7BFDEF
3C687C61
3E0E9866
3DA6E2E9
BD0FE62D
3D9EA624
3DF3C080
3DE24A07
3DA496CB
BD6A40A3
BC2FFBBD
3DD04320
3DD55B26
3DAB8941
3D07478C
3D5EF0FB
3D937F07
3C8E41D5
3D3F389B
3D142F48
BC15A2B1
BD89041F
3C827C54
3D6EAB81
BCFE6539
3BBC3680
3C00AAE9
BD04FF94
3DFBD6D6
BC22F2EB
3D84B050
BD9E0E81
BD4EDFDF
BD959D24
BD88C3BC
3D30B9EB
BD8E99FD
3D98BFDE
3DA7DE07
3B042F5A
39B4D210
3E8F58E1
3E634C1F
3E697BA2
3E197CCA
3DDFE739
BC856EC3
3E0AD5B7
3DBC1AAF
3D64480F
3D06A881
BD32620B
3D5F8692
3DA04E70
3DD59580
3DC05CA6
3D3526A0
3D64D70C
3C8004A3
BDAAF3A1
BCB0490F
BCF43E4B
3CB63F87
BD3CB9F3
BB5EDF56
3DBBBACA
BCD4D178
3B8870EF
BDB7D67F
3D72A2D9
3D3885EF
3D06396B
BC0B00BE
BD3C30C8
3DB261A0
3C53D3F7
3D49835A
3DD6FEFC
3D801AF8
BBBE15C0
BC89F6EB
BBA8A69C
BD601E4C
3DE85627
3D24DFFF
3D38D342
3DC87C1A
3E121C0E
35FD4FBB
3CC22642
3E0B6436
3D96515D
3DF32832
3E0D1E0D
3DF795BC
3C6B2FA7
BD3D49BF
BDA52184
3C7CEE78
3DB5E244
BD81AB4C
3D73AE93
3D3CC068
3DC33E8F
3DA4E68B
3DEAD0A4
BDAD9649
3CA1F333
BD2C215C
BD9B28B9
3C9752DA
3D885398
3DA253F9
3DF54D19
3D920231
BCC01699
3D84FBF5
3D041F28
B9AB66B8
3CA16522
BD6FFCFA
3E032015
3D47E9E7
3DAC1048
3D9842AC
3DD6FFB8
3DC8B590
3D7C616F
3D3D8623
3D7FD630
3DBD3756
3D86AE7C
BD51992F
3D99BC1A
3DABED72
3C84DB35
BC88D1ED
3DD51544
BCC36706
39CC6CB9
BCEB1F5D
3D1FD19B
3DADD6E4
3DFCFCD5
BCDF08DA
3D85065D
3E0153E7
3DE8D2BB
3DBF58ED
3DCF126B
3DE29842
3E30C6D1
3D2DEEE3
3DB8B62C
3D4F5CD2
3DB6565E
3D828EBF
3E354EB2
3E184F24
3DABFAD8
3D41E3CC
3D1223E8
3D12621C
BE1B6228
BE207E22
3D8343B0
3B4BCFCB
BCF6A264
BD9F10F1
BDBBFC1E
BEBEC902
BE6C63BA
BE38E8B7
BE09FBCC
BDD60EAD
BC9C7D7F
BB8B54E0
BCE15F6B
3D9847AB
3C9AB4ED
BC5BD5BD
BD0619C0
BDBD9772
3C549B77
3D6C47BA
BDF2532D
BD810C8B
BD28E77D
BC9DFC42
BD397399
BCD15065
3B47CE91
3C9732FE
3D256A4B
3D99FEF9
BCFF7620
3D3F99AA
BDB4FC38
BDA5E2F1
3CA72647
BDE69091
BDB2B0B5
3CBAD5B8
3C40CA69
3D2C0524
BD3B550F
3D632D35
BD232A51
3D34FDE4
39095335
3C53686A
3B3D3E21
BC9C6DD8
BD82924A
BC8ECC0D
3BD165C5
3CF511EA
BD042CE2
BD9EDF23
BCF7A307
3D4B65D3
BD3E0582
BC9CAB67
3E00FF08
3D87BA91
3D3D5885
3BAAF477
BD667E4F
BD3A19F1
3D023EB3
3D962F0C
3E1722D3
BD1AACC3
BCBFD02B
3DD8C301
3DBADCFF
BC2A8402
BD2A91D4
BD1B2CE4
3E3172FC
3DC8B5FB
BBB69945
3BF9615E
3CF1DA84
BDD8922F
BD58A177
3D782466
3DD6C6AE
BC7E0FE8
3D8B7D55
BD53912F
3E02EBA1
3D3DAFFE
3CB98B61
3D9D65DA
3CF7F64E
BD0253B6
3DD277FF
3CC3342E
3E085BD1
BDD411F5
3E53B595
3D59CED1
3CD6421A
3D0C155A
3D437790
3D861958
3E1BB12C
3CDB10AF
BC20CB05
3CB498B0
3C9D6B1B
BD9DA2D7
BB471A11
3CA41BB1
3CD3A3B4
BB7DD8CC
BD4880DF
BC53DEEB
BCB3E178
3D92F546
3C76CF24
BDD4EB42
3E0566BB
3D2C3A01
BC59C026
BD87FFC0
3DD92DD8
3D73D2D4
3C421AD6
3D97B52B
3DB589E0
3E0E3B9E
3E14F015
3D87A722
3B9D1D22
BD5888E0
3BD3427C
BCA75A0B
3E02BD2F
3E0E697B
BD1DA145
BD2DFAA6
3CB6D0FD
BC7F183B
3D934805
3DE95094
3DB6FC3D
3D106C4D
BCF2C44A
BD1EA2AA
3DAAC865
B7708640
BD66C9FB
BD84E2C0
3D89E749
3B85A120
3E064757
BDB98DF9
BD6C4F45
3BA0358B
3D65C3F9
3DB8D733
3C09CB30
BDB8E813
BD54D712
BD7CF3DD
BD910EE4
BD80AA07
3D923D46
BD9B1232
BCEFDC64
BC64F253
3D2616E7
3CB21246
BD5E59FF
3ADC303D
BDA074CA
BC735C0F
BD949561
3D9A3940
3CAC1973
3D93197A
3D85949D
3BBE9915
BBD08AF9
BE0BC27F
BD16D54D
BE5021F7
BE1A0352
3D0BD6FE
3DC1C23F
BDB4C92C
BD9ACBC3
3CB28BA2
BD1940BC
BC91FC98
BDC40E89
BE0BADB3
3CCE5C98
BCF06754
BE2FFE4B
BDA34DB6
BDD13337
BCACC12C
BDD1DFF2
BD6076CB
BD4A3041
BD8D15DB
BD62E4CC
3D34F28F
BE1E3610
BBF2B983
BD1CC374
BD32CD88
3CFCC25F
BDCBE182
BDF889DF
BC2C59C1
BE4536F0
BDFBD935
BE145650
BD0B5222
BDBC563B
3C34AFDB
BDC126F7
BC807449
3D37F887
BD9BC5A2
3D6735D2
3CB2A607
3DCBCF37
BD9E6B41
BDBA7F90
3DF6E93C
3D44E010
3DB676F4
BDADE208
3DA9C42E
BD453BC1
BCE92720
BCF624C2
3D5604A9
BD0D6999
BDC4081E
BE0ECC20
BD8D0749
BD08426A
BDD80DAF
BD69804C
BD2E11A3
BDAB5547
3CA36B8B
3D29E8BA
BDD5DE29
BDA69B46
3D174E45
BD762D54
3CD5D77B
3C8E9B42
BC54C621
BD9715C1
BB67CC8A
3CB0DBD7
BC61E4E5
BD1FF322
BC8B2CFF
3D40B839
BD847431
BD9A1042
BDBD1796
BD8756EA
BCFF14BA
BDC4DB64
3DB7577C
BD8F98BF
BD9E9EC7
BCB9DDD9
3D85A971
BCA784DC
BC70EB0C
3D29DC6E
3DA05357
BCF684BC
BDB2ACEA
BDBB7EE0
3C75A805
BCA935EC
BD93477B
3CFE5608
BDD43BAF
3D03504C
3D85D576
3D08E56E
3C802033
BD109AC2
BDBFECED
BD561358
3D26D80A
3CE6978F
3D1D8A72
BDBB3CF2
BD937319
3D35C446
3CE2A756
BDB61A35
BD8D06EF
3CAB656A
BD698C3F
BDB5A120
3D0D676C
BD1C728A
BD04C1D5
BCF0EA0D
3CBA2EE6
3C88734D
3B7030F5
BC842418
3D2583B0
BC7228AB
BD8A4786
BD2E8DCA
BD81E2CA
BCC8460D
BDC31FE4
3D6732EE
BD2EC1A5
BD6D89BD
BE2DC0B8
BD1B3663
BDB641E7
BC80DFD2
BDCE6FD2
BDE2874D
BE01B0C6
BD50D946
BDD2EC9E
BD6CA9CA
3D4C0FC1
BDD9D99F
BD864BAC
BC604D0F
BE0A0063
BD2E6CD6
3C9B78DC
3D53D88A
3D10A24E
BD9AA1E5
3D3A1AB8
BE0BAE09
BBA6FD37
BCD42456
BE106CE3
BDBE7A38
BD2CA061
3D62DDCE
3D7F5430
BC82FCC2
BCF90C2D
BCF475EA
BD8B7249
BDC3A022
BD9399B5
BDD6B95B
BDF8F31A
BD1598D6
3D0BC770
3CB77E37
3D182C3D
BCA7D7B3
3CEC9B28
BDED636B
BD6903B8
3D6040C1
BCB8B2E9
3B26E8D3
BDB73681
BC7C10C0
3A0F448E
3B8A508F
BC9E1DC2
BBFE47C8
BD1A5317
3CE56A5F
BDCA5E31
BC844188
3D1EC585
3D4A7B85
3C9634DF
BD0D5FFF
BDDB1C77
3D61C88A
BDF258FC
BE7DD28D
BDC51D8A
BE734811
BE3437E1
BD922D0D
BD0BEB63
BDE95A92
BD96FFE3
BDD70CA4
3D3B7024
3AE6F95A
BD0C9FEC
BD89155C
3AC81219
BDB4ABFF
BDCE7388
3D2A85A1
BD504D81
3DA68232
3C2C7B20
BC938730
3BD9A814
BE06FBEC
BDD33AC9
BD2B6352
3D83116E
BD51FE89
BDD98F44
3DB75C17
3A9ACC79
BBC560C5
3DAF63C8
3B4111EE
BD71CC04
BDED5755
BDDC5D5C
BD6DF48A
3BAF1EFA
BE24A7A0
BC4F8796
BC5AD834
3D4B8132
BD93EA50
3CB80D00
BD25FCCB
BD34334A
BDA46FCB
BD8A260E
BCB2412A
BDA859EC
BE34A6AD
BC93F04C
3C4A418A
BCD9893C
BDF92087
3D91DB3E
BDECC535
BDE324F9
BDC810CB
BDE86378
3D14299C
BC60DCEB
3D2216B1
BCF62F1D
3D1F6A65
3C936F70
BD62E662
3D52C0A7
3D977DD2
BDC4F36B
BDC0F3B9
BC1468E7
BD946EA4
BDD41B80
3D6966AB
BD828740
BD82199A
BD98BFA7
BD2AE1CE
3CF63111
BD34720C
BCEF6626
3D973D2A
3B959313
BDE29B3C
BCA8964C
BC6EE37D
BC8F0223
BD1FE953
3D68A30F
BDF25554
BD358D09
BDABC82A
BCBCC11C
BD847F34
BD3DDAEC
3CDF27B8
3D8FC424
BD51D522
BBCA897A
BD29C3AE
BDB029F1
3D594A2D
3D17417B
BE0DC465
BCA24898
BD54DF22
BDFABC79
BD07B23F
BE163E9F
BDB5C562
BE17A794
BB7A85FB
BD88F9C8
BDD4ABF2
BD225A87
BDA1EB1B
BDBC9815
3D07771C
3D1841C4
BDA205E8
3D8B2A77
BDC91735
BD160EA1
BD8FA242
3C8F146C
3D56EE78
BDA330CF
BE148BDD
BEB91BCE
BE29A215
BD8F9E4A
BBA3686C
BDACD1C7
3D8AF40F
3D52A9B4
3D96B9B4
3D9DC6A8
BDB859C0
3D6624BE
3C64C157
BDEA9E8D
BD885AA1
BABE8C8F
BD1D631E
3CC8A9D2
3BA101C8
BDAF735D
BCB95048
BDB8D816
3D2DF42E
BD85E06C
BD4EFFA9
BD074FAD
BD6F622B
BDCB7BD5
3D17E888
3D871C49
BCB231C4
BC492B49
BDACDECC
BDFCE5A7
BDBCB8D0
BD6C85C7
3BAD3970
BDA3AED1
3D83AF9F
BDB2127D
BD202A99
BB33BE0E
BBF4ED76
BDEED3E8
BE0227D6
BD8C6007
BD43EA9C
BDB3CFA5
BD6E3F7C
BD809BA2
BCE599B9
BD5F3542
BC479914
3DE00943
BD867EBF
3C0090E8
3C9C8E24
3D1E1EFF
3D2B829E
3C0E103E
3DBCE447
3DB3A0E3
BD6F4FC4
3D48A2A8
BD63D171
BCCE2387
3DDB9DC1
3DAF560A
3D1A073A
BD0233E1
BD0FA1C5
3DEC6A3B
BCFFA8DE
3DF5FC63
BD05B42B
BB11BBFF
BCB76401
3DAD2319
3D8C95DD
3BBE133E
BD47C57C
BCCA3E8C
3D99C2F3
3DBD8AC7
3D80D925
3DBE791D
3C533524
BD43CD16
3C1CC1DA
BD16EDE1
BC912FA2
BD87EE54
3D12AFD0
3DA99464
3D5622BD
BC06DD66
3D629268
BD374B29
3BA51B9B
3C5A8251
BD91FA64
BD73783E
3DAB2F4A
BCE5B017
BB7F2FE0
3C2D1740
BA39DA38
BD591532
3DBD952A
3DD0ED3C
BE090133
BD5BCE1B
3D223BDD
BD1F4474
3DE78437
BDF3E9FC
3C62CCDB
BD6C30DA
BD8CC92D
3C55D3BE
BD4EB98C
3C9A46A8
3DCCF97D
3DCDC59E
BD8B9458
BD9FB30C
3C7B0BC2
BD8B02AB
BD18032C
3D3AD5D8
3D330B9B
3E066013
3D887C84
3D489A9A
3D92BD58
BDA87D95
3DE46291
BD785947
BDAC6685
3CCFF71D
BE13CC67
BE099F25
3D60EA5F
3D5EF3D8
3B9E1BFD
BB5010B5
3C41E19D
BD53648E
3D0C4009
3C9DE399
3DBA4EE7
3BE243F7
BD12EEE3
BD0D9A69
BDD5C4BF
BCAF6E6C
3D2B3EED
BB5FDEB1
BD068624
BE2E29E3
3CF80A87
BD1314BC
3CDEA67F
3D1F6D2F
3DD1767A
3DEB7FEA
BDA71540
3DA9D611
BDEF8AD9
BDC7DD53
3D254418
3D0D277A
BCF5B62B
BDD534CE
3DA1638B
BC83625A
BE0598A0
BE3703D6
BDA2B150
BE041CFD
3C01A38F
BD2BDFED
BDCB345C
BE224EB7
3CFA7EEC
BE1E3EC8
BBFC5454
3C076E23
BE0006DE
BDEFD174
BDE1B199
BDFD55C3
BD801FA2
BE1128BB
BDD00E09
BDDF43A5
3D2ADF19
BDD07712
BDC256CE
BD389967
3DC391F3
BDE81083
BDD3E4D5
3CD4C61C
3D078C55
BD92ECA6
3D62BE7B
3CD5BD37
BBFBF652
BC1C6EDA
BDF9A010
BDCE4E4D
BDE86D29
BDF7566B
BD7DAFF2
BE0A0819
BD9FB73F
BDD8401D
3D361BD8
BD71FA27
3C5BBE11
3DB24453
3DAFEC9F
3D9D5CB7
3C7056E2
BC7F2BEB
BD7FD629
3C81CBEF
3DBAA02E
BD92FA91
3D9AD611
3DAA1870
BD463AE9
BDAE60E0
BD6D8563
3DAD3C97
BDFC54C9
3CF19851
BE006EAB
BB8CF20D
3C9B9448
BCC56E94
3D33A0E4
3D0FE768
BCFFEA2C
3D399CCB
3D562812
BD58769B
3D999560
3D37B735
3D6753FC
BDFB8436
BDEA5080
BDA9D8F1
BD1E09AC
3CAB3DD8
BD455E80
BDE4B8A3
BCDCDCD0
3C31A737
BCF3107F
BD9AAD66
BDD3B409
3D48B327
3D99A33C
3D1F73EF
BD1D96FB
BCCE74CF
3D896D67
BDA16278
3CF9A8B1
BCA29236
3C006301
3D8A0F54
3DB0AD05
BDFE3373
BD40FB9A
BD3FC5FC
3D9D32F3
3D1BFE57
3D7EC6C9
BDE4A6EA
BE07A8B6
3CAC44A7
BCD7EAFD
BD8BE16C
BDD2B22D
BCFAB5F3
3D6269CB
BD814F1A
BC45CB9E
BCC35F87
3C9E483B
BDAFC325
BD950DB2
3D3BA42C
BD642F12
BDCAB832
BDBA4D50
BC8110F5
3C5C60A3
BD098EB3
BDEA83AB
BD8ED131
3D1DEC5E
3BAF2A55
3DA65FF9
3D707259
BD4F5840
BB741D62
3D8414DD
BDC45477
BCA77883
BD3639B9
BDFE997B
BDA38EC3
3D978F56
3C8DF7D6
BD96146A
3C6074F9
BE1DDECA
BDB84DE5
BD9F3005
BE13A75D
BDB2778A
BD0EC7D1
BDA8333C
BCDEC9D1
3C895DFC
3C04459A
BDF15057
3D0E8F70
BDE86210
BD3605E9
BD140FF8
3D9183CB
BC30E251
3D9C767B
BE046D62
BE1C2234
BE001C05
BD4A1E19
BE136FA7
BD417FE6
3C540FDA
3D30D358
3D252F59
3CF6F2E6
3CDCFFCA
BC435D3C
BDE02BA2
BD4CE0F7
BD9DA17F
3CB58C84
3D6B9EC7
3C6662DC
BD04BD1A
BBA28D74
3D4E1918
BD81EC0D
BD761FA4
3D86A828
BD637A5A
BE00EACF
3D87D52A
BD80C801
BDA7CD39
BDB76FC5
3D57A188
BD639C52
BD6A5202
BDCD4433
BDCDE872
BD23A734
3D17FC67
BDD8A4D4
3B09EEA5
BCC480A2
BD8DB16F
3C8E58BF
BD86217D
3D2DDF5E
BE117EEA
BDD28BA8
BE0249B0
BE21CBE5
BE03DCC3
BC344383
BE02DC3B
BCDCC268
BD881188
3BF28753
BDF449DE
BDD61209
BDD57951
3CEC9083
BB1FC2EB
BCA12B6A
BC937505
BDAC2FC0
BD2F324E
3C95FEFB
3D3C0087
3D8E17AE
BC6A34DE
3D2FEEE1
3C35450B
BE0DDBD4
3D8A7E83
BD8E5767
3D9BCF01
BD644F99
BCB4AE92
BDDB55E2
BD9C8DC2
3DBB5B8C
3D47547C
BD32DACC
BDAAE3F4
3CF70606
BD6E8578
BE0DA7B8
BB107071
3D0A0B2C
3D970E0A
BD8C3150
3D8047A7
3D8D0D9B
BD9752B3
BD3A041E
BE19D20D
BDE23DC7
BE2323D7
BC1E0F15
BDAC6BF9
BD0CECEC
3CCC9F84
BD8EC7D1
BDEE42B5
BDEAED5B
BDDAB028
3C5C9152
3D065DAB
3D11AD46
BC2234BA
BDA193F1
BDF15563
BD3337F1
3D473608
BDC5327A
3C56FD85
3D849833
BD51350B
3D2CFE97
B71BD382
3B26F04C
3D7BD9DF
3D92DB95
BD27B97B
BDBA7D63
BDBF4572
BDAB6A70
3D11422C
3D93A7A8
3CDC7D05
BD296B04
3D211AA3
BD685992
3D299C57
3CA004E1
BD2C4AD9
3C7465F9
BD283423
BCA851A7
3C269070
BD83D567
3C953E63
BC326F63
BDF2C013
3BE40016
BDEAFD3F
BDDA5E4C
3BD89DFD
BC689930
BD31511A
3D0BB80E
BDEF517F
BCC01459
BDD507EC
BDBD11CE
BDE18E1D
BDEF0ADC
BB069D18
BDA1A8B2
BD46A4D7
BCA54FD9
BD2DE064
3D52C6C5
BE000FE9
BE22F155
BD152ACC
BBF6939C
BDA79B8F
BD3239B7
BE24C7CD

