BE8C80D6
BFD7E285
BF415D5B
3F8A371F
BEBCBEF5
BF7E8703
BEABA68B
BF7FE3DB
3EE2C567
BFC0C299
3E9EB9B7
BDD245FE
3F3DD855
3F0BFCA0
BFFD7E9D
3F4DEE2C
BD5F87FC
BEA9E5E9
BEC59390
BF162C05
BF5031E8
3D0D9B59
BE9FCB5D
BE2D70D2
3AA0882F
BE23BDE7
BE1690BE
3EBC1E36
3DADD8D9
3ECF4556
BB9C0070
3E9F31BB
3F298D2F
BDDD3BB5
BFB14DD3
BFAA283B
3D1320F8
BF691B38
3FC1C951
BDE1EAA7
3ED33E60
BE697E11
3F074BF2
3E87F5C5
BEBDC599
BF2E2967
3D0F07CE
BF92A267
3EAB4D2D
3F05A837
BD0B2BFF
BCB0BAE3
BE54E2BC
BD58C645
BDD93A30
3E57F7AB
BEBB799C
BEF94348
BD0324F4
BE5199F7
3D0B2F11
3EB5E0F4
BECCB049
BE4A4D65
BDA89744
BFD9EFB5
3E892E11
3FD3542C
3F785009
BE8025FC
BF4879DC
BEA5DB08
BF939225
3FC644A7
BF43E4AD
BF87735D
BD4C70E6
BF8059FD
BF393CB7
3FEE9A7B
3E936F43
3F00C2D4
BF266CBA
3D0F641D
3F2A0C08
BE8752E8
BF35C928
3E4F7210
BEB81A44
BEF7729D
3EC06973
BDBF3577
BF1BE939
BE95AB7D
BD213A69
BDA9F415
BDD37562
BFAD9EEF
BF881816
3F6A316E
BDF511FD
BF84E979
3E6325C8
3F9DE0F2
3EF6FC51
BF882D7B
BE9ED99D
BF2C56DD
BF268B66
3FF6D1EA
3F220640
3FD69E9F
3FF43718
3D07F21C
3DDE2039
BF8E5118
400D00B7
BF8E8932
3FD0547D
BC35B30A
3E579034
BE786B73
BF1B29E4
3F3F2D12
BEF71ACC
BC90D084
C0008ED7
3ECDB245

