3C833B34
3CB09C60
3D54FCBC
3D7BA108
3D584F98
BCF66300
BD841793
BD1126B3
BC0BC198
3D42C3E4
3C8E7A08
BD1F3D8A
BD978389
3D865F70
BD99B809
BB2B4DA0
BC9C7902
3D5FA4D4
BD786BCF
BCB68DF2
3D8079E0
BBEB0E10
BC5661C0
BC26C7D8
BCD9438E
3D906C00
BD8C9F4E
3CD0A198
3D5BBBFC
3D1C39D0
BD0BFD9B
3D9B74F8
3BDEFC30
3D66B194
3D43ACF2
BD96BC2B
BCA6C858
BD1F3286
BCF9F846
3D4816BA
BD3DD57A
3D2E2BF6
BC8870FC
3CE183EC
BD6BCD10
3D444334
BC8B8EA2
3D8C5E8A
BA144880
BD7CE5BB
3C8F28F4
3D87DFA6
BD982806
3D8FFB6C
BD263BF6
3CF68D50
3CC08490
BC316E70
BD3FCCDA
3B9088D0
3CD14220
3D5F3CC0
3D95D25C
3CF853E8
3C4C7A48
BD49EC08
3CDA9EF8
BD85C387
3D4B2824
3CFCBFAC
3D09FFEC
3BACDA20
3C3D5010
3CF8E344
3CFE63A4
BD91FF8D
BAA40900
3CD6ECCC
BD678D05
BD89C70B
BCA214FC
3D10FC24
3C9368C0
3D94239C
3C986A20
3D861C48
BD4DF18D
3CE77EE8
BD5B5819
3D2902A8
BD25C77B
3D576214
BD0E59B2
BC10B318
BD08FFCD
3D6250D4
3D1548C2
3BBC31F0
3D863CC8
BC94C168
BBB76F20
3D894E24
3CC625A0
3BEC5340
3D0D6AF4
BD9A0067
BD1673ED
BD92A18B
3D9A9140
3D90BF66
BD6EABF4
3B2E4E00
BCDF6DAE
BD5FB7AE
BC4931C8
BC461A18
BD88016B
BD69821E
3B97E150
BD81B5EB
3CE6DA0C
3B400520
BD0D737A
3D331B1E
3CFD8154
3C3AA1E0
BD5BA5FE
BD88F6FE
BCB1ED44
BC8F3E44
BD26FA66
BD475472
3D5E80D4
BD24E10D
BD58F4EC
BCFB5492
3C2FFFF0
BBAD9D00
BCE744A8
3CBBC300
3D874B82
3D58A818
BAB61880
BD67019A
BB37DF60
3D2A37D4
3AF1FAC0
3D1756C0
BD94162A
BD54A6B2
BC237D48
BCF4E840
BD48B41F
3D704BC8
3D8D9968
BCC5FA88
3D650510
3D644058
3C551EF0
BC66B240
BCAAA77C
BD56A32E
3CF80694
BD6CAEBA
BB909890
BCF3D7B8
BD388B88
3B0422E0
3D98912A
BD904C90
BBF517F0
BCC680D2
BC0D5B60
3BAF3930
3D4C1A44
BD23E590
3CF8F530
3D436EEC
BAAFD040
BD13EF68
3D01546A
BD6A45FC
3D010266
3CAC6558
3D76E564
3CCC22CC
BD75E2E2
BC6539A8
3D47B338
3D5B52EC
BD78CC8A
3C287020
BBA405E0
BCE3D3B8
BC8EB4D4
3D746448
BD26CDB8
3C5B8C28
BD71F806
3D4C6568
3CE2B320
BC4D4B78
BD877174
BD9461E4
3D966334
BC1DF248
3C8C0C60
BC855504
BD391ED4
BCFF33B6
BD2621DE
BC95129A
3C399350
3D3C2C9E
3C95F60C
3D2C9B50
3D3464F8
3C5DB0F0
BD25DE53
3D527F38
BC9E6436
3D0F7E9E
BD6A555E
BD0AD1D4
3C8B0470
BD9ADF4B
3CCD9148
3D1CB656
3ADAFA40
BD2E2510
BC9F51F4
3D5DBE08
BCC1AFFC
3D4159B8
3BDF1170
3D6870F0
3D03900E
3C7AFAC8
3D8EE066
BD7132D3
3D76BE8C
BD8A3797
3BB0DD10
3D770FA0
3D87871C
3CEE6640
BCB934FC
BD6770B5
BD779E94
BCD8814C
3B95E660
3CE87ABC
3D8092DE
3C1891F8
3CB4B6A4
BBB4EC20
3B861470
3CE11554
3D3DA7B2
BD57EA88
3D7DC528
BD1D60E1
3D7F4D50
3BF09780
BC9DF688
BD29887D
BD42923C
3D949372
BA56EF80
3D91BD86
3C3DCDD8
BC13C8E0
3C5E4E98
B99D6B00
BD736732
3CA6D810
BCE5FC1C
3D82AF36
3C994B7C
BD87A3A9
3D95D33A
3D461B18
BCF51916
38CC8400
3CDBBD90
BD41DA68
3CA510F0
B9950E00
BD60FE5E
3C96C8E8
3D4F73F8
BC523378
BB938950
3D6EDA40
3C9A78B0
3D3A3E48
BD0FA6A6
BB17D140
BBA86D80
BC9D77EA
3C52F468
BD4F6468
BD2DF3F1
3D56E328
3C03CE00
3D9009BE
BD737EE0
3D0E29A2
BD8E45DD
BBAFB8F0
3CCBD2F8
BCEB8596
3D0EC19A
3D3B67B4
BD848790
BD4ED205
BD885DA8
BD317A1A
BD8F8328
3AE53A00
3BF77D30
3B214F20
BD6BCB20
BD0833EB
3C9F843C
3BDAC680
3CD8C4D4
3C91461C
3D576278
3CBC1800
BD481631
BB8EFA00
3C1ABF08
3C6F37A0
BD776E8E
BD53CCC8
3B57C020
BC61AF84
BB62FCA0
3D9896FE
3D8ED2F6
BBC90840
3CFEACC8
3B56F520
BC8D1CFC
3CCD04B0
BD6D45EA
3A0BCF80
BC9D9E0A
3D0D1934
3D8A31C0
3D312C22
3BF7ACC0
3D61F47C
BC066270
BD4485FC
3CCA2DE8
BCDFF7A8
3CC91C58
3BA9ACF0
3C0AA868
BC5E2FD8
3D532960
BC61D370
BD17D095
3D5F3828
BC9AF11E
3C3AC740
BCEF5CCC
3B349AC0
BCF3D206
3CA497C0
3D57DA1C
3BA7BB70
3CF5724C
BCEB93E8
BCB83EC8
3D6F4668
3D1222C6
BD00C580
BB564D60
3D5B7DD4
BD99F72A
BD5C6094
BB663B40
3CAB7B48
BC7CE724
3CE1C7C8
BD0CB985
3BA4AD20
BD4B5A9D
BC2DB028
BCBABC0C
3BB8C320
3B3553C0
3C9B6ACC
BD9B4CB5
BD12F253
3CAC2248
3D6E37E0
BCC27DAC
3D6ED308
3AD06700
3D81BDE4
3D813F22
3D8CB1B6
3D20DF9E
BCC08FF6
BCA1F558
BD762AA4
3D8F0AF2
3C9A6D4C
3D0E3D40
BD604BE4
3D8C541C
BD85E174
BC95C426
BCAAE060
BCE96CE4
3D88ACCE
3D0DDD66
3D6CEDF0
BD8D3115
3D35416A
BCB2E402
BCD778B6
3B07ECC0
3D3504B4
3C512710
BBB0D8F0
BD8FB11F
3D7D589C
3D372BD2
3D34E68E
3D8D7F7A
3C5E9260
BCFB4CFA
3D84F1D0
BD6519A0
3CE7037C
BD1FFB07
BD4DF872
BD766E87
3D88E45E
3D7C22CC
3D384612
3D8A7DB0
BD7AD16A
BCF884A0
3CCF5DFC
BD151E9F
BD86FAAE
3D5389B0
3CDE3FCC
3C6049D8
3D8DC0B6
BB7E1800
3B79F1C0
BD3E86CB
BC67A0E8
BD35BC32
BC1A6F30
3CEB93FC
3D45DFA8
BBD53E40
BD22F14A
BD892900
3D7B9638
BD967693
3C05DD98
3D0D1872
3CD0F57C
BCCEE8CA
BD511321
3BCFCE20
3C0CAA78
3CF1FDD4
BC12F7A0
3D01F694
BD16593F
BD5C3654
3C006298
3C9B0AC8
3C162228
3C58DF58
BD446421
3BEA3A40
BD02530D
BB9F3400
BD947540
3D34D766
3D350A36
BD783CAE
3D8B7F7E
3CDD0A2C
BC0444A0
3C897790
3CF3F0C8
3CB80FF4
BD8E81CB
BBAD0C70
BC9B8A94
BB66D720
BD0D1982
BD2D0867
BD9569FD
3D6BAC88
3C527358
BB0EAEA0
3D687A48
3CC4BF80
3CE4CD00
3CFE1D60
3CB43128
BCC4F958
BC190D18
BD7711BC
BD1ABB2B
3D1DEA60
BBBA8D50
3D88B19C
BD924AB0
BC2B9168
3CDD9AF0
BD078AD3
BCDA9192
3D83269C
BA554000
3B577BC0
3D914AA8
3D778EF4
BC338758
BD1AF925
3D96471C
3CCC6920
BD3CCF64
BC188F98
BD1A96FE
3D8CBE84
BD20EF09
3CE81A48
BD64EE86
BD8EA51C
3D8FEA98
BD761FF4
BCE64948
BC1E2BC8
BD65FBF0
BC1CE098
BD6A468E
BCC34566
3D69DE98
BCE24A8A
3CC5ECC8
3C75DD68
BCE8704C
3CBDDBE4
3C834F00
3D641B84
3C21AA98
3D011BD8
BCFA0CC0
3A8E95C0
BD234741
BD139C4B
3CE6AC8C
3D991FAE
BD1C241B
BD292695
BD86CDB7
3CF4F5A8
BD754440
3D92F602
BD4D104A
BD904351
3CCE8364
3C353BA0
BCA04BFE
BC0CF510
3D668560
3CBD7AA0
3D8B8358
3BE81710
381DC000
BC997322
3D28B70A
3B405640
BCC0963A
3D396792
3D6BD0DC
3C907DF8
BB9218A0
3CCD6128
3C458D68
BCB35004
3D82DD6E
BD821CCD
BB87E150
3C4C7AE8
3CE6DF68
BCACE0E2
BD326979
BD752FB0
BD2327A8
BD180816
3CFF1920
BD1CB55A
BD83C08A
BBD985D0
BD0FAA07
3D7ADD04
BD853702
BD1FA60D
BD3020C5
3D39B918
3D6E27A0
3B4B7300
3D82F8B6
3C9CE080
3D6DE61C
BBD20640
3D88F8AA
3C0731F0
3C6FAE90
3D7E76BC
BC972B00
3D51C624
BD72DE57
BBD609A0
3D20A34E
BC988724
3B7155E0
BAA8FA40
BD9ABFDB
3CD087A0
3D9345AC
BC874F86
3D0243D2
3D046FBE
B9D03600
BD126CCB
BD28A350
3D5762F4
BCE44520
BD4A61D2
3C3F01C0
BD94AB65
3D396E20
BD8489B0
BD576FD8
3D3E8EC0
BD6BF9DC
BCBC1918
BB6B8D00
BCDC21C8
BCE61F9E
3CA00058
BD775256
3C9ACBC0
BD98E052
BD8E87ED
BD80AA5E
3CEB20D4
3D7F58F8
BC2B2378
BD813187
BD2D08CD
3D1CBFF2
BD51DE5E
BBBF5A90
3CA39A98
3D6B49F8
3D0C0B2E
3CF88CFC
3D5BA014
BC83946C
3D348AEA
BD89626C
3CBCA288
BCA8FB40
BD147E56
BD5F1656
3D8522A8
3C88FA0C
BC59ACC8
BBB1C5A0
3D22C52E
3D3413AA
BB2B7C20
BCF3D0EC
3D07E244
BC70CE0C
3D907DDE
BD69D15C
3CF0B394
BD26DD58
3D0A2F22
3D991CFE
3D131FBE
BB93BF40
3D30133A
BD3EF22C
3D309112
BCF81C26
3D877DCC
3B1E8D60
3D80EA92
BD62CF01
3D69EF4C
3D0A6254
3A55F780
3D6962F0
BD1BBF3D
BC3E4E20
BC6AA9C8
BB8B0760
3C62A0F8
BCAA93AA
3BA64D50
3A4C4200
3D4B5084
BCDA748E
BC167E30
3D1D04E6
3C945074
BC8D5E58
BD5C0F1D
3C13DEE8
3CC4FF1C
BCF37B96
BB015060
3D390730
BB9F2300
BCDB1C58
BD23605B
BCF0E6AA
BAABBE00
BD500578
39F7A700
3D6FF07C
3C046BD8
BCD680AE
3CD0D1FC
BD816A05
BB73F8A0
3C3EDE60
3C3B6C10
3BC59160
3D20C7CE
BD0D28F7
3D186D34
3A48FE00
3D3091E2
BBC43030
BB628800
3D6F3848
3C755758
3D89A190
3C9699E4
3D8F3120
BD7D42D5
3BE1B4B0
BD8AE4AA
3D34C1D4
BD97E41F
BD124728
BC1A1A08
BBAD12F0
3CD0C5A4
3D709E98
3D771C80
3D33E568
BD2801F7
BBA43B30
BC3F75C0
BD8761D8
3D3B4B8A
3D89208E
3C9AF19C
BA9DD2C0
3D7A02B0
BD5F853A
BD97484F
3D353590
BCA11DA2
3BFBB5B0
BD9701E8
BCC9D3D2
BD6C3A44
BC0C6A38
3CCE7D6C
3D30D3CC
BD378052
BD83774A
BCEA1878
3D9A1424
3C721140
3D040B84
3D28A6A2
BC9F522E
3C445A78
3CE75FC4
BCA26F54
3C9C2654
3D46DF1E
3D2C9CAE
3D2B250A
3D384ECA
BD36BE93
BD1E1051
3C6FCBA8
3C972F38
BD8F703C
3C8F4F3C
3D0364D0
3D7CC28C
BD81430C
3D983B62
BC8EEF76
3D1BB920
BD58DF77
3D5567D4
BCF9AF48
3B3979A0
3CCB2CF8
BAE14BC0
3D884C6C
BD5BDBCE
BD841159
BC9B6298
BC0C1340
BCB3D768
3D7F943C
3C956470
3D0D2684
3D90C6EA
3D92FFCA
BD88BEF0
BD1511DC
3D1AA87C
BCB4F338
3CADCE10
BBDE59F0
BD90640D
3D89B352
3D189CA8
3D2D19F2
3C8F2390
3D643A5C
BD98672F
BC11A060
3D39EB6E
3CE180B8
3D543F90
3D1D4690
3D82124A
BD12B909
3B6364E0
BC885DD0
3C86CE54
BD788E38
3D4C4948
BCFFDFDE
BB81D220
3D66C224
3D891AFE
3D91DF22
3D1271E2
3C669B88
3D606818
3B6B5180
3CF6B574
3C71EA20
BCE3061C
3D751498
BCE32F78
3D99BB0E
BC2931F8
3D87FCD0
BD375C8C
3D1AD904
3B09D940
3CF7DD98
3B794EA0
3D933FCE
3D862C86
3D0804EC
3C4E49D8
3CC17720
BD3FBCB6
3D8EC1DC
BD090D3F
BC920346
3D3EE4D4
BCAB5166
BD4560A9
3D572174
3D92A5B8
BD99D6CA
B6C9C000
BCC83568
3D8275D2
3C6553B8
3D9719A2
BD350586
BBE27610
BD49A26E
3B92C7C0
3D84555C
BC362730
3D535C74
3D9665FE
BD7E1726
BBEE8900
3D1607B6
BD0B264F
3D8419A0
3D20F41A
BCF3F94C
3D99CBE8
BD042A9A
BCA3AB30
3CD9BF70
BD6D3CD7
BCD32D72
BA82BEC0
3D8C1B7E
3C8C6298
3D5F9528
BD8C2F3E
3D7B5AAC
BC6B2828
BCF8F308
3C055660
3D59B358
3D58B48C
BD21B22A
3D3B9034
BD794121
3D1E0BAA
3C896010
BD92FADE
BD784666
3C5FE2D8
BD06B44E
3D7C16B8
BCF43AC4
3B988250
3D8597A8
BD800549
BC9808AC
BB7C5860
3C1D1D00
BD4760A4
3CA8CD24
3CE33724
3D811708
3C11E8D8
3D167A14
3D126572
3D8B3608
BD70E8CA
3D3DCE56
3CC14560
3CA3A690
3D5B3CE0
BD845F8B
BC1C3BC8
BC7A0084
BC7821B0
BD2D0907
3D8D2E12
3BFACB30
BD5C8724
BD43D86E
BD7994EE
3D4F6984
BC5BED10
3D1BC626
3D91E942
BD2EF644
3D7B6DB8
3D971EEC
3D1925B2
BD86794C
3C8862F0
BA20A080
BD669461
3D8E6DA6
3CFF55DC
BD6AFEE6
3AA7D5C0
3CDEDCB0
3D510758
BD6B7EC0
BD936D42
BD8CB04A
3D679120
3D00D7BA
3D07A4BA
BC48B818
BD823ECA
BD015F3C
3D9694DA
BD59394E
3D07E972
BC59F938
BD8D49B3
BD9553A3
3D6A62A0
3D926B10
BD1354E0
3CF85C90
3D512648
BD016B41
BCC79128
3D0D8822
3C29F860
BB913AD0
BD8F9F54
3CA94FF0
3D2A60DE
3D72A940
BD2A5C01
3D2DC0A2
BAE48300
BD2B7782
3B816080
3D283D0E
BAE94440
3D9AC132
BC80C2A8
BCA52874
3D360C24
3D84FA50
3CCB4C1C
3D2B8B34
BCAB29CA
3D5B6268
BCEE997A
3D0EF876
BB776A60
3D693928
BD8C93C2
BCB4EAB6
BD57D3FD
3D446602
BB1B9D20
3D10C558
BD2041B9
3D19E03A
3C9295CC
3D3AC056
3CB0B5B4
3D7098E8
BC86CF8A
BD92763B
3C4E84F0
BC286F00
BD60B0A0
BD4F73A7
BD34A341
3D932E62
BD4C4F96
3D1CB2A8
BCC2A834
BC7C8B00
3C0A56B0
BD4F20D8
3D9950C2
3D58A520
3D402AE6
BD35408A
3D785AC0
3D98408C
3D48FCE8
3C322298
3D75886C
BD490C0F
BD824B5C
3CCA9388
3D4FE38C
BC8DE5F6
BD5BF1FC
BCB41DAA
3D16FB74
3D1E0494
BCB22E06
3D84922A
3B2654E0
3B919F60
BC08BCF8
BD7DA748
BD4B736E
BC6A2D34
BD7252DE
3D0F41C2
3D7F6AB4
3C1D1C88
BCD4F394
BCC620D8
3D86C1DA
3BAC9920
BD509413
3D1778E4
BCD3A20A
3D910E70
BD1221AC
BD6460F6
BCABE266
BD8B9369
3CC908FC
3C6407B8
3B823120
BB02F620
BD4A43F8
3D3FE262
3D4A7320
BC956F14
3C7083A0
BC9E4F52
BD8A0722
BC9CBA1A
BD8222CD
BD0CE04B
BD1B5A0C
BD5E8ECA
3D9850D8
BD3DCEDE
BD235A51
BD2A34BD
3CAD6520
3D90BDE4
BCBDDCCE
BCE0DD92
BD7C1D74
3D83205C
3CEB2484
3D8F14CC
BD69F8AF
3BCF26E0
3D37932C
BD4B2F6A
BAF21800
3D33BD12
BD68B076
BD1CD894
3D79F5A8
BD42E2B1
BB3BCBE0
3C96BE28
BC186400
3D88368C
BD1561D3
BCF33160
BC7542AC
BD73E344
BC520108
3C8D79C4
BC59B208
3D88CE40
BD6E0A64
BD96099E
BCE3AA06
BD6DAFC2
3D6C5FEC
BCD3E2E6
3C50AC78
3D3E4132
BCE69B0C
BB8A12A0
3D77C2FC
BD377E3B
BD57615F
BD6D5110
3D5E33BC
3D6AABB4
3D78F1B4
BC8EDA80
BD7877D4
BD2BC1BD
3CCAC8E4
BD99CE28
3D10EA56
BD5132DC
BCDEA154
3D443AE8
3D4C21D0
3CAC1524
BD9A25D6
BCF2F6EE
3C25FC88
3D9601D8
BC186AD8
BCCAEA3C
BC2A2668
BCCD9C68
BD3783A0
BD128267
BD232E6F
3D6BF148
BCC3E5B4
BD9B01CE
BD98F723
3B6087C0
3C8448A8
3D0AE15C
3D5D6648
BC14E958
3BBAE0B0
3D272682
BCFDB688
BD3758F4
3D935FD2
3BA5EFA0
3D799400
BD83D098
3CD6221C
BCF0547C
BC4A2328
BD8F62E5
BCAF3046
3D8E3FF6
3D77FA48
BD9922CD
BD12F659
3D09E778
BD5B656E
BD7B8D10
3CC37E5C
3D5B5FA0
BD4C04D9
BD0569B1
BAB15800
BC98E566
BB160F80
3D7B3F54
3D820028
BCAE9F5A
3D25B224
BCAFEE50
BB6524C0
BD6A8ECA
3D05D6C4
BD4B0D9D
3D7F07A0
3D1CC1C0
3CEB5BBC
3D86EB84
BCC509E6
3CD6FD18
3D9570A8
BC17E160
BD65F8F0
3D454036
3D972DEA
BD348FD4
BD92CCBA
3D9928C4
BD7429E8
3CC82AF8
BD0AED66
3D18A3BC
BD6FA348
BD153A4E
BD48807E
3C043A88
BD6C6C66
3C4DBD68
3C387E78
3C9E6214
BCAA7F3A
3D975A64
BCB09DBC
BD7418CC
3CB8CF5C
BD624D28
BD0C95CD
3D89AA9C
BBD38040
3CACD610
3C9B8638
BD78EF28
3D13E416
3B277680
3D25E052
BD431B42
BD38B924
3D6D31B8
BC623E28
3CF686C8
BD830809
3CAD7F70
3D17659E
3D1E7E0E
3C192CB0
3D28F98A
BCBC7BF4
3D1BF242
BD742C20
BD83EEFD
3CE2AB60
3D0954EA
3D6C6DF0
BCAA3DA4
BCFE1B5C
3D01E1EA
BCF9A02C
3CD58AD8
BD95D001
3D885934
3D4541FE
3D071E26
BC84AD30
3C97CA80
3C87F100
3D80AB2A
3CFA3D34
BD674988
3CCAEE1C
3C58D048
3C81E078
BD876FC8
BC9C1E82
3D77B884
BB885650
BB568500
BD3D9838
3CF84D24
BC6ADF54
BC3AF118
BD6E9B42
3D67B4F0
3D762398
BD2B4495
BD301FAB
3CD92114
3A7B4080
BC6F7218
3C5E2900
3C897BE4
BD5A26C7
BC2B4FA0
3B95A9E0
3CD0B94C
BD8DE1C8
BC901494
3CB540A8
BD078A4B
3CFB4E4C
BD78AE0B
3B21FBC0
3D619470
3B9A1270
3D22AAC8
3D70C9A4
BD775D64
3967E000
BD6E683C
3D0C8962
3D9042BC
BD42485A
3D80F840
BCE405B4
3C0DF2B0
39D6BC00
BD1F801D
3D7D5E40
3B3F8F00
3C4D63C8
3D6CB7D8
BD8B9768
3C1C2500
3D8FA950
B9C3E800
BD29EE62
BD99D78C
3BCE4440
3D982320
BD2BF537
BD0C5140
BCF0FEC6
3D89BFE8
BCB5F59E
BD11DF1E
3C5B98D8
38D43800
3CE61D90
BCFEAAEA
3C5DDBA0
BD667C96
3D7EDD4C
3CD65A40
BCCAF25E
3CB7C768
BD8EF461
3C70AA10
BD00CF48
3BF2A880
BD99C560
BCBD316A
3D2E1ADE
3D81C5AC
BC6F0E84
3D048C88
BC9AF584
BD855061
3C0ED518
BAA535C0
3D901974
3D944A0A
BC88208C
3D6F4AAC
3D6BF5E8
BC565AF0
3D142516
BD16E02A
BC39EAE8
3D314736
3D8D00EA
BD71748C
3D79EA00
BC101BE0
3CE106B4
3D28BD1E
BC9263B2
BD2EB4ED
3D95AC22
BB534000
3CCA8490
3CEB37E4
BD8AFB93
3D2D3A40
3D9B77F2
BD7AA12A
3CC36554
3D273296
3BEC26F0
BCCDACE4
3D96F0C8
BD19B0FB
3BDF1BF0
BD34A0A2
3A620F00
BD1A1A1F
BCAF826C
BCCC418E
3D8D6FD4
BD790250
BCE60DEC
BD27B002
3C19B7E8
BC9E0F98
BC09A3B8
BC7A00F8
3D800D52
3D5DEE94
3D44005C
3CF32420
3C53CB10
BD58892E
3C91450C
BD4E0906
3D010BDA
BD23483E
3D2C9E1A
BD42B5B0
BD827801
BB344560
3B60FDE0
BD14C95C
BD702B7D
3D3BE8C6
3D88A152
3D2E7ED4
BD7F1FCB
BD8F2BC3
BD8E4112
3C8F9EB0
BD6A001C
3D804140
BD1C2116
3D225F1E
3D891100
BD44F0B8
BD9131DA
3CA3B43C
BD0F2193
BD5DD08A
BD112F96
BD701FE2
BD94371C
BD46F1E6
3D35721A
3D44789A
3D8C1C84
BD57E50A
3D409DDC
BD33A379
BBA2F200
3D762E6C
3D934162
3D59CBDC
3B0674A0
BBFF84B0
BD9076C4
BC6CB6EC
BD42F2D5
BC329558
3C238398
BD0B26F4
BD8B9962
BD511DF8
BD87CC36
3CB9946C
3D3EC49A
BD6C4E18
BD8A1966
3D6C5274
3CE8EAA0
BD985231
BD962960
3D8FDC8E
BD36E4AB
3D920FBE
3D85F72A
3C9F53B4
3D6ABA64
3C8A5264
3D62F8AC
3CA939E8
BC317508
BCA0763A
BD23E60A
BD090761
BD833610
BCDD9AC8
BC863972
3D81FD90
BC044DB0
BD5D8A5C
3CF65F3C
BA281D00
3D2D2818
3D2FD4C2
BD543229
3C54F778
BCC0F456
BD9710F4
BCBF5B16
BAEAF080
3D5C32A4
BD8822E0
3D67777C
3D64A0B4
BD989BB4
BCBC3988
BD724BE1
3D8F0AF0
3C44DDE0
BD03B0FB
BCDC3AEC
3D1CAED6
3BE85060
BD42A2C2
BD70D7ED
3D93B11A
BD239E12
BD039365
BCA58D34
BD79D48A
3D05540C
BD75715A
BB151620
3C75C430
3D751620
BD348986
3CCF6980
3C8FB4E8
3D0B4F58
3D314364
BD203ACB
BA171200
3D5233BC
3D47FBBE
3D98DC24
3C6DF1D8
3D59507C
BD08A499
3D8F6716
3D15DE9A
3A49D900
BD8ED6E9
BC998FD8
BD24E8F8
BD8AE5D0
3D8872DC
3CEB5974
3D59A700
3C480290
3CB4E688
BD5122B3
3D771F5C
3D5FB06C
3D704594
BD24BBE4
3D4EA7E0
BD24E9E2
3D5E3100
3D6E80EC
BD86A423
BD57EA4D
3D3E3E68
3D873536
BCA6893A
3B24B080
3D979730
3D0931B4
3D050F44
BD05201C
3D4BFB78
3D2185E2
BB4136C0
BC618C20
BD5E1199
BD523E12
BD2B50A4
BBD80250
3D961F90
BB9FBB80
BD837137
3C84B6FC
3BCA1370
3CCABD6C
3D3A8264
BCF56C90
BD11B23A
3C919A1C
BCA8BE90
3D98C298
BD1B89BF
BCEC1524
BD2F3BF9
3C9B6D88
3CECE81C
BD570AE0
BD1CAFC0
3CAF2C40
BD67AB6C
3D177112
BCA6DA58
3D005872
BD25769C
3CD24650
3D94342C
BD463EB2
BD998F5C
3D876E64
3A855180
BD355B20
BCCF77B2
3D459A20
3CDA04F0
3D8AC426
3C850E9C
3D1C1DFE
3D071772
3CAF6474
BCF7734E
3C405E08
BD3DF7DD
BD478430
BC3E30E0
3CDDA038
3D7B38D4
3D2A1210
3D18C6BC
3C8BE194
BD3A815A
3BD6C370
3D19C23E
BD24648B
BD73512A
3C8404B8
BD8761C7
3D4CF2D0
3C6F5628
3A744980
3D180382
BD8970DA
BCD12C98
3C5285A8
BD35DCCC
38407800
BC8727F2
3B324EC0
3D37C13A
BD7E3A1B
3C54B978
BD2E390F
3D19CE96
BC8E36D0
BC996862
BC39B150
BD5219B0
BD1B8641
BD8AD438
3CD0C9A0
BCAB7A88
3D6B0CA0
3D8B9C40
3CFA75A4
BCB0FC56
BD9B72F8
BD972965
BBD75BD0
BD8AE835
BC1703A8
3D09C902
BC847616
BD486375
BD666AD5
3C46BA70
3D44C8B2
3D48BCEA
BD36DB4E
BB8D3C70
BD9854D7
3D5EEDD0
3D384B8A
BCAB5EA8
3D65ED30
BD8224B3
BD9749FF
3D82044A
BD98090E
3D5F703C
3C8C8AA8
3D4AE328
BCC4223C
3C864070
BD0DBBFA
3C0D5DB8
BD608D23
BD7EF953
3D38F772
BD4F69F8
BBBEFFB0
3C56AE68
3C9BDB54
BC671094
BC9E36A2
3D61216C
BD2A008E
BD575A2D
3CF9070C
BCFFA34A
BC3F6058
3BAEC170
BD1906F4
BD499E29
3C966B78
BD5F8DE3
BD37D40A
BCF56356
BD827545
BD541C05
3C1D7188
3D64DC64
BBD650C0
3CFA47B0
BD725962
BC7DEBE4
BD8FB545
3CD0033C
3C5BE258
BC32CBD0
3CD7F520
3B495580
BC3E01F0
3D6CCE2C
3D000424
3D0E3816
BD9B2FC2
BCE6217A
BD20EB07
3CFF530C
3D7132B0
3D946D6A
3CFF4D64
BD818251
BBB2A9F0
3CABEAF0
3D964BAC
BCDF26DA
3C19C420
BD617484
3D4EEB3C
3D943B74
3B8DA550
BD1EAADE
3D2B5C5A
BD3C3E0C
BD63D0C8
BBB3CDF0
BD98EF99
BD97F4EF
3D757CFC
BD11E669
3D805A30
3D3AB2E4
3D9A446E
BCDC91E4
BD434E70
BC3E0410
BCE93C20
BCD86170
BD6791FA
3D86F60E
3C35C950
BD82C4BA
3D896DDA
3D3B328E
BD5FB16A
3BDFBA30
BBC731F0
BD2B938E
3D105B98
3CC123F4
BC4E76C0
3D9A9456
BD8B0EFE
BD3A8DE2
BD8B2775
3D126B46
BD23311D
3CBD72D0
3D8DE48C
BD943626
BC993292
3CF3D480
BBD46FA0
3C920248
3D799A60
BD8B05B0
3D611364
3D772EB8
BA2E9C80
BD1FD538
BC9E52BE
3D8008AE
3D419DFC
3C26AC70
3D497250
BD80D66E
3D846BB2
3D53CD7C
3BEA9130
3D384AA6
BC83C458
BD5ABC24
3D420AD4
3B1A9640
3D78EDC0
BD3A6B0E
3D573128
BD9568D2
3D7EFA44
BD02ED3E
3D8E07AC
3C8AA208
3D8EBC78
BC86C5EE
BC5DF928
BD228F19
3D75F56C
3C8BCF0C
BD8CF365
BC903926
3D8217A2
3D6EC2F4
BD011C8C
BBA27090
3D8A2308
BC603BA4
3D2F18F0
3C6284F0
3CBCFBC0
BCCAA7A0
3D3DBFBC
BCB0CE3C
3D977CEC
3BD946D0
BC79CB48
3B77AC00
3CFB2114
3D7CECE4
3A9E8B00
3D41F99A
BD83B715
BC5D972C
BD50ED7A
3AB7BF80
BC5B7450
3B5BA220
3D8CB9DA
3C52A6C8
3AF741C0
BBE1BEB0
3D3ABBF8
3D6BCAF8
3C96ADD4
BD4E9B29
BD60E43D
3C10D768
BCF66A72
BAE60280
BD1C7DB2
3D974EB2
BC53A7F8
3D015ECC
BD5B1F4E
3C84BFCC
BD5FACC8
BC2717F8
BCD786B0
3D0F650A
BD237F15
BD2CB748
3D74D2F8
3D0F336C
3C33DCD0
3D97CB3A
3C3AD418
3D4AA580
3D91EEAE
3D979F70
BBAEC680
BD1F6129
BD3A16B5
BD3C8E9A
BD61658E
3CBA0B88
3D289B8C
BD70BED2
BD04946D
3D53BC80
BD0BF14D
BD009D1D
3C9133B0
3D7D2E50
BCA85206
BD7204BF
3C6F8DE8
3C1C9100
BCFEF4C8
3D6154A8
3D7EC618
3B31F360
3D1BC2DE
BCDA9D3A
3B8221F0
BD67DB28
BD8B5664
3CB66D54
3D0ECB40
BCC5E260
BD8E18D7
3D7C21B4
BD872BFC
3C9F9760
3CEC4824
3D723F54
3D6227C8
BD5C6588
3D6AB6C4
BC0DF558
BC7B5A80
3D83BEBC
BD8C0072
3D51B35C
BCF0FC92
3D27A5B2
3CFC0C6C
3D82DF18
3C42DAF8
3D90C776
3D454C8E
3D467A0A
BD5562F8
BD99FF4D
BC666D84
3C0025A0
BD986F3C
3D6FDFF4
3D411362
BD8EF7CC
BC2E2730
BBF10380
3D4587A0
3D637644
BD3D89E2
3D554264
BD0F50CD
BBC77140
BC620A48
BD77673E
3B8564F0
BD03EEA3
3D96C144
3D35EB54
BD98BFB0
3D56EC48
3D0E5232
BD6F83FC
BD1CB9AF
BD527394
3D35DEEC
BD2E43FA
3CDF19B8
BD0948D1
BD980F96
BCE93540
3D8C197A
BCF2ACFE
3CC90874
BD2ADF99
3D7C1904
BBE84A90
3D750C3C
3D817E84
BD0E5C51
3D691608
3CEC4B7C
3D5644A8
BD57FCA5
BD55BFCA
3D8B75C0
BD2AE0A9
3D9340D8
3D9B09AA
BBB74400
3D1F852A
3C1C8E90
BD5C6DFC
BC830ACA
BD2C5BD5
BCB73C00
BCBF2D36
BD43423E
BD99AAC5
3ABE9500
BD8FB6E5
3D70ED5C
3C3DE280
BD9949FC
BD81D8D2
3CECD8F4
3D05058C
BC78B1C8
3D4C2B18
BCCB0282
BD1A2B58
3D74BB28
B9A08600
3D8B4D06
3D95F058
BCD51BCC
3CDB61EC
3C9E0BC4
3D06636A
3CEA4C00
BD40D9D4
BC8C82AE
3CCE9FF4
3D98DA68
BBEF4750
3D8244F4
BD804F38
BD92F1A6
BCCF61C8
3D21AE40
BC1E4DE0
39E9B700
BD364FA0
BD8B6346
3D92C89E
3CD6534C
BBA82E20
BD7091BE
BCDB1F1C
3D363B28
BD2A3FCF
BD15D15D
BD8786FA
BCAB45AA
3C45C760
3D47268E
BD3BEDB5
3D3E21A4
BD630D76
BC89F104
BD910426
3CD3F6FC
BD905FD4
3CC29004
BD925368
BD451EE2
BD8B9CBE
BC3E1540
3CC9D97C
3CDF45D0
BD0586A1
BD6569FD
3CEF3AE0
3D9B0350
BD2A9918
3D232764
3D2F07A4
3D981330
BD627809
BD826D46
3D2D41FA
3D01923E
BC230920
3CAC8620
BD7D1048
BD408713
BD576384
BB614EC0
BD5F98AC
3C0F9480
BD7AD9EC
3D2C738C
BCE0E644
3D93174E
3D27FD46
BD2093C6
BD486F00
BC8488C4
BD4D04EE
3CF581CC
BC8B1952
BD5395DD
BB420960
3CD4952C
3D8A18A8
BD92A382
BD8181FE
BC67DFF0
3D8F21C2
BC423D70
3D89FE7E
3D5C95C8
BCF01714
3CC729E4
3D54B734
BC162CC8
3D38241A
BC0889E0
BD8B91EE
BD2028B2
3C92A724
3D370774
3D9B1460
3C35E750
BACCB480
BD21BE9A
3CF2E880
BCD379A0
3D8CDCFE
3D9540BC
BCC011B0
BD94CBBA
BD438A1E
3D0A22AC
3D090B9E
BD1CCA4C
3D6F3560
BD7969D8
BCAF5FFA
BD0F5EC6
BB058B40
3C614E10
BD910EC1
BD2B4ED6
BD9A1D91
3D4EE920
BD77DBF3
3D836EA2
BC79BE84
3D091ED0
3D4ECE10
BD971A0D
BD87A0D2
3D772914
3D9A110A
3D87BE38
BD9283AF
BD3C6786
BB4F05C0
BC808204
BBF5D4C0
BD77B364
BA828940
3A8492C0
3D72EF60
BCFDB60A
BD5D3EDC
38D43000
3D53750C
BCB4358E
3D83B966
BCFD54DA
3D7C29C8
3D299A88
3C824164
3D477D0C
BCC435CC
BD9273BC
BD932780
3D783DE4
BD07E236
3D380F0A
BD97C8C4
BD02645A
BC2F0A98
3CD22470
BD08EE42
BD2EAFB4
3D015332
3D71E428
BC9DBBEE
3B38A400
BD63EAE4
BD80E6B6
3D8B593A
3D0E3E82
3CACF834
3D8C4BA8
BD29CA36
3D649628
3D390F46
3CDF0878
3D83BE1E
3CBBFF9C
BD3A9C24
BC1F8240
BD1E23F4
BD2B5841
3AC9CFC0
3CD53300
3D815F38
BD256AE4
3C681B80
3CF4A5C8
3D554A84
BD2FFDD4
BC34A870
BD5E2A96
BC5BC558
3D80C74E
BCA1E596
B9FC5500
BD4CD2D6
3C3216F8
3CCCD0D8
3D8AFD48
3D96ED26
BBF42EC0
BD8C5500
3D5E146C
3D0703E4
BC0AB678
3ACC6E80
3D021D0C
BD93C5E3
3D86F0BA
3D026804
BD1C16A0
3D71C850
BD22983C
BC8D9224
BD3FC69A
3BDD8260
3D5FCA70
BCE6E5DC
BD10C67B
3D41628C
3C9098D0
BD594C28
BD0E5FC1
3D6820F0
3A508480
3D2AFB5C
BD1E8130
3D8C5E60
BD0E4A17
3D1011BE
BC0B7630
3BBA84F0
BD1E28D5
3D8911CC
BD39C6F4
BD5BA554
BCF595B2
3D555708
BC0BF480
3CFE25A8
3CD0EF10
BC00B110
3D8B0506
BD892652
3D3BCC66
BD073375
BD6CDE29
BD4266F1
3D24D242
BC436A18
3D596CC8
BD218A67
BB88EB50
3D89B292
BC816AB4
BD946F67
BD99EF5E
3D282068
3D85D5AA
BD808C64
BC3FE678
BD82604A
BCEE834C
3D02E08A
BCBD4196
3C232798
3D6330A4
BC873CB8
BD25B3EC
3D67E8E0
3C8750E4
3D74E91C
3D5FF1D4
3D5CA6A4
BD1006AD
3BECDFD0
3C7B6090
BD05B8A1
BC005A90
3C2F5BF0
3CA749C4
3D269DE2
3D3C0C5C
3D078D38
BC327130
BC44FB58
BBB683B0
3B711260
BD245F5C
3D012FE6
BD49738C
BD9472D7
3D376728
BB9544E0
BBB7E580
BCFED984
3D84B598
BD98380B
BBF01360
3B7B7840
BD85FC99
3D13C178
3C8A9FC0
BD98B978
BD3057BE
3D54D784
BD9631F1
3C9FE4D8
3C03B748
3C015FA0
BD03577C
3CBF8408
3BC71A30
BC1E0878
BD44111C
BCC4C722
BD57CF20
3D4CEA64
BA683200
3C88FDA0
BD82BA2E
3CC2FCC8
BD821166
38E92400
3D18AA40
3CCFB6D0
3D97AEF2
BD77AFBE
BD8DAC59
BD8E15D0
3C71CEA0
3CF026CC
BD278332
BD98EEA1
BD1FAD84
3D44E87A
BD8263A1
3CD0C084
BD68131A
BD0675F2
BD877A4E
BCE03352
BD7EA79D
BCEBD7F6
BD954D08
3AA7E700
BD8AE21F
BCD5B704
BD8CF76A
BCFEBA3A
BCA89030
BCD705FA
3C7476E0
BCC2D5EE
3D4D0F04
BBF17350
BD98BE30
3CC6BEE0
3C35BBA0
3CEEFE00
3CC08E68
3C54E770
BD765DE4
BCA00A7C
3A236780
3D946F2E
3D92987A
3D1CBAF4
BC449A98
3D240B46
3CAA2E58
BD14D359
BD99A043
3CEEA5DC
BD8C8F31
BB889970
3C151160
3D4FEB28
BD4CB8AC
BD62E728
BD936E3A
3D3825E2
3D7780E4
3D06027E
BD6E2CBE
3D6CB034
3CE76FF4
BB9FAF10
BBEF6600
3D556FA8
3D07290C
BD84A9F6
BCB17480
3CB67968
BD6199EC
BCB8FED4
BD0C574A
3D9018B6
3CA64AAC
3CFE2C08
BD6608BC
BCB1A366
3D5324C8
BD97BED1
3D4027AC
3D80C61E
3D82C92E
BCFEAC0E
3CF5D054
BBC1AF90
3B8D2950
3D98F57A
3D8EBCDE
3C9C09B0
BC3A8920
3CE8B5D4
3CF28528
3D78D7F8
3C292940
BCD346BC
3BBABEB0
BD95FCBC
BD986312
3D5BC568
BD89DDE6
3A60C680
3CE71C78
3BA42BD0
BD228750
3CBFB3BC
3C412F98
3D135A54
3D626DC0
3C963F50
39C52700
3A061E80
3C67DFC8
3D8D71CE
BD3BF274
3D03241A
3D4CB5DC
BC2FE130
BCEDF9AA
BD878109
3D226980
3C9C6670
BD4673E2
3C98D49C
BD85EAA3
BD7F4D80
3D218E9E
BCE6A59A
3C4DAF70
BD10CBAF
BD43D594
BD96F1BF
BD01E383
BD8AB54A
3CC01070
3CD1C860
3D40712E
3D5FF958
3D12C010
3C6093E8
BC02EEC0
3D6A1540
BD1829A4
3D6D7DC4
BD4D7A88
BD12DE59
BC07F698
3D5D8C38
3D8A6666
BCA660C8
BD97AE81
3C81B334
3D72191C
3C01D018
3B908770
3D51DA08
3C639C88
3D11F804
BBA8DAE0
BD38A251
BD489279
BD0724D1
BCDDA384
BC9783CA
BC9FA546
BD979947
3CB9A964
BCB108F2
BB77B860
3D953482
3D973D9A
BD13C1C2
3D943946
BD6FDD32
BCE09054
3D8CD26C
3C7D19F0
BD7B453F
BD1A6D24
BC692FAC
3D813CCC
3D811FA4
BBD22DF0
BD18C682
3BB8A510
3D3AD8A4
BB631940
3CB75114
BD3D987C
3D4C249C
BD12C3EA
BCB3B1BC
BD83C2D2
3D9A0E68
BD0389BB
3D982558
BD29CFA9
3D8BD364
BC83CFE4
3C95A878
3C3F5038
3D08080E
3D9A49E8
3C29AA10
3D63C97C
BD4C2ECC
3BE8D8F0
BD61F0AA
BBB0CE70
3D404E6E
3D96B446
3A9C3E40
BC9D2718
BD9912A2
3B5DC380
BD7D2214
BD90E24F
3D0A392E
BD169C73
BBFFAFB0
3CE01EBC
3D47D7B8
BD8F5C36
BC0A4680
BCD3A0BE
BD515B31
3CC27C08
BD47FB30
BCD165FA
BD993FAA
3D5FB9A0
3D6AA1E4
BD82C794
BD87EC49
3D037322
BCA0E8D8
3C17D3D8
BD52C9CF
BCD69146
BD8D90CE
BCDC1490
BCCB29E4
3D1C9ACE
3D456808
BD0A0E12
3D3F0856
3D05D8FC
3D83CFB0
BD69DC90
BD0F8C32
BCE5DA58
BC9E79A2
BD62817E
3C643290
3D39196A
3CEEC10C
3B61B960
3D0CA100
BB6E4740
3BFCB560
3CC5E024
3CB61B24
BD6BC7F9
3D25E158
BD30392C
3CF83078
3D9962AA
BD15AC81
BD317300
3D98C070
3D2C44EE
3D8104DA
3C811050
3D56B2E8
BD0387DE
3D26127C
3D4DAEA4
BD75545F
BD124A41
3D97E102
3D7D741C
BD33BE7A
BD1E5BB9
3D3FCE90
3BF83070
3D9A001E
3CC2C210
BD8447AF
BCE998E8
3D0838C8
3D2797D6
BD571F2D
3D99655A
BC25DD70
BCE106F8
BC51AC08
3D764E30
BD838FC7
3CBCEF60
3C9013EC
BD770290
BD3620AA
3D7D90B4
3BC5A7E0
BD8FB0C2
3D8EE5C4
3D836918
3CCC772C
BCEE9C18
BD0CE20F
BD83C9AC
BD3856EE
BD3D1BD2
BD2D8100
BD48F97D
3CC3229C
BD5818BA
3AF87040
BA4A6C00
3CED11B4
BB8542A0
3AC8C500
BD46E892
BCE847D0
3C85A1D8
BC6C3AF8
3D862788
BD527A88
3CCC68F0
BD287028
BCEC46B4
3C8B1C78
3D77F1C8
3CC02080
3D5AB0F0
3D8E0AC0
3D3CFE46
3D8841EC
BCE5AA74
BCA68F92
BD26FFD9
3D2D171A
BD6ABF4E
BCD7B42E
3A466900
BD85CFA9
BD80C29D
3A8827C0
3D890D3C
BD24D397
BD756461
BD4D5D84
3D883664
3D81B26A
BD762D44
BD141854
BD97A200
3AC00340
3D826746
BD145A33
BD558D34
BCC7D602
3D15DE9A
BB3D8240
BD11329F
BD600381
BCB671E2
3D26F4DA
3D7E64D4
3C68AAE8
BD705D90
BD452ACA
3C5219A8
3D593298
3D8B24D8
3D5F9414
BA1DD100
3CA89870
BC0B7388
3D8E4DE6
3D9B3808
3A3C6100
BD5D960E
3C7C3AB8
3CCE9CFC
BC95824C
3D3E88D4
3D899CD4
BD943AFB
3CDFC2FC
BD3A44BC
3D858756
3D42264E
BBAADA50
3D244076
3CD42BE4
BCFEAAE2
3D037EF2
BD6DB6C9
BCD92EBE
3D47DF38
BBF83B80
3CE5EC94
3D445BD0
BC3EE6E0
3D878538
3D791834
BD6CE199
BD332BF5
3C087740
BD5904D6
3D8B69A0
BD345F8A
3D38706A
3CC272F8
3B02E660
BD49C974
3C198AB8
BD7A2BC2
3D8F5466
3D84CCAE
BCD64D8E
3D20B3A4
3B9DDDC0
3C39F3C8
BD92FDE3
BD193C72
3D25D3AC
BD30F991
BCD0306C
BD5F9E20
3D703358
BD31CD71
3C341088
BD801E77
3D6AAF8C
BD9884DF
BD11410E
3D2286B4
3CE87550
BC9A31C8
BCE188EE
3D5445E8
3D98C078
3D117A7E
BD0265C2
BCC362E8
BD77B6A3
BD542A3E
3D7C1C80
3C682978
3D418D8E
BB9E7840
BD2CEBD3
BC3C3338
BC93905E
BD03DE66
BCE7301C
3CE4924C
3A72FA00
BBA436A0
3D4048BC
BBBB84C0
BC571358
BD26EF5E
3D3FA660
3D505C80
BCDDCBC6
BB16F0A0
3C1A84C0
3B3D2800
BD47FDF6
3D15DED8
BD3FB112
BCC52DF2
BC975228
BCB06EE8
3D97AFFA
3C6DA558
3C2C5960
3C94C2D0
3CF6BA3C
BD875387
BCF6C1FC
BCB8590E
3C110900
3BBB1FC0
3D8A0308
3D199E16
3D61017C
3D8E378E
BCB16FCA
BD7F15E7
3CEFF2B0
3D5AC430
BD6E803D
3D5279A4
BB408EC0
BC8EF196
BD8DCC7F
3D97EF3A
3D342CA6
3C28AC38
3A22DE00
BCECD406
BCD7D90E
3D83C5A6
BC98F5F6
3CEC5BB4
BD424E2A
3CBEF1E4
BD77DB49
3D37C3EC
BCB9ACBC
3D8F6A56
3D86F09E
3D91847A
BD09B208
3CB3C1FC
3D941F26
3D136D86
BD03D74C
BD8067D2
BB92F860
3C91FC34
BD0E1C40
3D5F99F8
3D44EE28
BC0795A8
BAE74EC0
3CD0FFA0
3D93C60A
BD021830
3944B000
BCAB9E88
BD84E958
BD7CFB52
3B573DC0
3D2D495C
3C7A1938
BD142860
3C89C5CC
BBAD2A10
BD948DC6
3D93D534
BCE87A66
3C857810
3C9B62B4
BD97D133
BD5EB7DD
BC6753F4
3D5B4BB8
BD97447B
3CF83CA0
BD5ABB5E
BD0D09EB
BC0D1520
BD7CCB6E
BB495E00
3B44D9C0
BD569BDE
3ACA35C0
3D962656
BD2B3B9E
3B00A960
BCC19204
3C8EAA00
3CEB0800
3D80B14C
3D85E56E
3D59F148
3D950B8E
3CF3E39C
3D4E1A78
3C0B0FF0
3C93DE30
BD4401BA
BD7ED398
BD85C158
3D24C65A
3C7751B8
3BAC6FD0
3D56A034
3D58ADF0
3D8093B2
3CDB4AD4
3CA07280
3D15CD18
3D181204
3D07A2CE
3A5B1080
3D899F82
BD224B15
BCAAECC2
BC4EF268
BC62D8F4
3C07BED8
BCA2B3F4
BC2E4B48
3D3B79DC
BC553C20
3D0EF9C6
3B55A080
BD305119
3C28C6D0
3B046A00
3D18F492
3D0F8450
3D8037E6
3D65A2F4
BD24F5E2
3C63B890
3B391720
BCBA1B40
BD10BE56
BD93B407
3D209B86
3CD0415C
3D0AD30A
3D91948E
BD090639
BD902242
3C8E2718
BD28EB78
3D9671D2
3CC3C008
BD1C7C68
BC8CA864
BD051041
BD1D8772
BD98ED4A
3C88A380
BD007695
BCE3E814
3D482E4A
3B3F26C0
BB82EAC0
BD72416A
BD5963B9
3D0B8E64
BD9B20BF
BD803A57
3D89BB16
3D64F028
3CFFEEF0
3D7FEA44
BCFC11AA
3D3B7226
BD80A3FC
3C31F188
3A36C200
3C8B14E0
3D8EC026
3CEA09D0
3D316F42
3C661CB0
3D37A082
BC950CDE
3D969CAE
BD476EE2
BCEFF29E
BCEF019C
3D08D72A
BD7A2EE8
3D931C42
3D9B26AC
BCFE8108
3B2B4CC0
BD494617
BD58FE6B
BD875E36
3C82D988
BCD1954C
3D86BA82
BCED33C4
3D72D3E0
3D3B0D26
BB5D13E0
3C919994
BD998694
BD500EC6
BC0C2BE0
3CC1F1D8
3BA8FC70
BD9AFC34
3D68D734
3C0C71E8
BD77B88E
BD19CE51
3D218598
3C5003B0
BBAC8340
BD40A6CE
BB8949F0
BD72FD41
BD1CC773
BD2A9F1D
BD913B79
BC9E6196
3C671F08
BC24B510
BD97E031
3D774A44
BD957B62
BBF30460
3D4789F6
3D76F904
BC54BE68
3D8D6AD8
BD599566
3CD79640
BD9091AC
3C20D1E8
BD8FF27B
BD95528E
BD666840
3D726C78
BD950C14
BD9B80A4
3D2D22DA
3D84D2EC
BD5FF306
3D083D7E
BC9625AC
BBCC9430
3C5B6470
BD8831B3
BD982978
3D45FF86
BD21A0C0
3D6612DC
3D9B6C20
3A807480
3D926B2E
BC358368
3D32AD3A
BD8F92C4
3D61B534
3D927502
3D6811B8
BD9ADD51
BD1F6509
3CB92CE4
BA94D8C0
3BFDEE30
3D8B5114
3D2B497A
BD00115F
3D81FB9A
3D8B1C10
3D52B8E0
BD971DCB
3BAF92D0
BD5550F3
BD4901C4
3D010610
BD787412
399BEB00
3C9BE104
BCEE4CF4
BD90C99B
3D36BFB8
3C6AE3F8
BD35A555
3CC25C90
3C2BFA60
3C1DA370
BCB22B4A
3C079410
3D975564
BD4AE47C
BBBE54F0
3D710128
3D334008
3D4B5E5C
3D74AF58
BD3A48BE
3C69FC98
3AFFEE80
BD919BD2
BCEF2AB4
BCBFB742
BCEF2368
3CCC09C4
BD132C6E
3D8CBD76
BCB12198
BD99132C
3CC378AC
3D7BA26C
3C489CC0
3D3F9D0E
3D932202
3D97A550
BB862F30
BD34373A
BCA858B4
3D778388
BD769D73
BD122D86
BD4F16C7
3CF8E028
3C5B4020
BD52BCF9
BB8BF520
BD73CDEC
BD94A2F0
BD2F12F5
3D2DCD1C
3D959A88
3D34A828
3AE32A80
BD8C5C50
3D1EDB7A
3C27BBE8
BCAEF180
BD14DA6A
BBB8F1F0
3D0AE2EA
BD6D71F8
3D32EE0A
3D0AB932
BD239E4C
BC77BAD8
BABA8C80
3D5387FC
3CD54AF8
BD19F3D2
3BEF8530
BD13F3FC
BB2D14C0
3B30C820
3D54A620
3D6672B8
3B4CAB40
BD139641
3D0BF5E6
BCFC1166
BD54EE74
3D283E06
BD60DECA
BD1DE0E7
3D94D6B8
3C720148
BC5F164C
3C2D8FD0
3C81E3B4
BD5AD218
BD7B6389
3D848820
BD865708
BD5A0B1C
BCE818D6
3C5763A0
BD7CDB53
BD5C98B5
BAD07C80
BC5AE4C0
3D9B3D3A
BD60241C
BD07B0A1
3BEC7A80
3CFA3464
BCA47C86
3D88B282
3D4EA410
BD5DD0C0
3D97638A
BC9AB874
3D2BC792
3D03DF2E
3D61AC24
BD89E91A
3C8756B4
BD3E622E
BC94301A
3D708D78
3D8519C4
BD97888A
3C8DA66C
3D2092B0
3C0B77A0
3CC8B3C4
3D37E3C4
BCF7AFC4
3D09CBB4
3D99A346
3C9149B8
BD999B05
BD57C3F2
3D8E7B98
BC28B448
3C3E01B8
3D2A3CAC
BD95C833
BC5132C0
3D09A294
3D931D02
3CEFC4B4
3C824DD8
3CDA9DC4
3CF1EFDC
BD8CEBC6
BD214B65
3CC0451C
BD1F7A21
BC975D82
3D0EBD46
3CB7AAA0
3D981F94
BD62A8B9
3D305DBA
3D804582
3CC24BD8
BCE5986A
3D8E5210
BC6EB28C
BD5F950C
BAA94440
BCA450DA
3D89188C
BD87060B
BD7DC20A
BD247BE6
3D24B7F0
BC9E7EDE
3BA3B490
3D86F81C
3B262020
3D98D8BA
BD30C372
3D27181E
3D8F525C
3D43A254
3C7B5788
BD288118
3D027316
3D7E8EB8
3CD93204
3D0A1506
BBB326D0
3D28F8EA
BB99B880
BD2C8F85
BC979A9E
3D9B5232
3CFB412C
3D1C55D6
3C722928
3D5E9704
BD131DF6
BD541A76
3D1B715E
3D7A6ACC
3CE979B0
BC486D80
BD037D15
3BA95DF0
3D8A17FE
3D8686A0
BD86C2B3
BD53A86A
BD8752D6
BD654C06
3BE97170
BCD4E164
BD9778E4
3D95DBAE
BC92E55A
3CB22578
BC7974B0
BC840AA4
3D60DF2C
BCD25232
3D817598
BBCE3EA0
BD8A88BB
BD96EB93
3C1BB850
BD84F4A0
BD831D83
BC78C588
BD7EE8DC
3D098934
3A7B9B80
BC86541C
3CA9083C
3CCF32D8
BC8F6532
BD881DCA
BD350691
BCAF7E8C
3CB23924
3D1CC028
3CD08780
BB307E80
BC45A678
BC8F117E
3C9455D0
3D46F238
BD6D5732
3D8725C8
3CE13D5C
3D52B9B8
BBA46560
BA9500C0
BD7DCBF3
BD8A347C
3D9AA31E
3D044132
BD9AC247
3D351E7E
BA90B3C0
3B1B9CC0
3D9A4724
3D51DD20
39E09F00
BD5F0548
3CC01ACC
BD38A429
BCB5D180
3D83B630
BD61FC36
3D72F1DC
3D8B79AA
BCC1EDE4
3BB1E390
BD52B30A
BD8CABF6
3C44C7C8
BD259E02
BD6C4384
3D79949C
BD299D8C
3CCF7AEC
BD32D009
BC78EC0C
BC8006DA
BC863704
BB5709C0
3D2FC5C2
BD150267
BD2C96E3
3D0760B4
BC242BE8
3D882E74
3CC673AC
BCB2D2FE
BD41BE04
3CD14CE0
3D0F8B1E
3C616138
3B9E63C0
3C4720F8
BCED98DC
BD838522
3CE6EDB0
BD87AAFB
BD8956F6
BCC6D85C
BD73B8E2
3D173502
BBC23370
3D96D9D2
BD037216
3D90CADA
3D791C44
BD42CD76
B9E70E00
3D12FDF2
3CEFDC10
BD460E20
BD03587E
BC99AE9C
3D6CE56C
3C227A90
3D47CDDC
BD717482
3C5E78A0
3C8801FC
BBA57F30
3C53E420
3CB5F6FC
BD561268
3D26E676
3C5934B8
BD975052
3D196A62
3D08F4CA
BCC10BE2
3D9B37CC
3D823E10
3D995B58
3D1F66CC
BD72E67C
BCD50B0E
3D1FEE06
3D3668C0
3CB931D4
3D5CEEE4
3D4666BA
BD83AD22
BD1CAA4D
3D215726
3C59A938
3CF1C870
BBA7A370
BD99DB9F
BC264CA8
3D268908
BB23DF20
3D13F15C
3D7C4728
BD84A042
BD7BE164
3CC7D60C
3BF3E560
3C026F38
3C30F630
3C8BF378
BC2EE110
BC4C7AD0
BD6EC9D7
3D8E8E32
BD387988
BD19F125
3D066ABA
3D6A9658
3D06C2B4
BC923602
3D6AF9D4
BB8B2FA0
3CA69DA8
BCE8D6FE
BD1EDB36
3D836616
3C6B7668
BD95BDF5
BC905994
BD6C5F9E
3D4387BE
3D705068
BCDA2C8C
3CF81DE4
BD25A561
3C7AF4B8
BAE21D40
BD79D468
3CFD91BC
BD613A8B
3C89ABB4
3D421594
BC334680
BBB82800
BC76BAD0
3CDA77D4
3CD23CF0
BD54C7D0
BD939A2F
BD916E5A
BC062978
BD1411B3
BD42A098
BD0558D9
3C82C96C
3B4A2C00
3CE8F610
BD064E3E
BD99C74B
3D180144
3D1F06A0
3D64E764
BD12CFEF
3D1A81B0
3C397FB8
3D75A4C4
3CF43C18
3D00603C
3C78CA50
3C8440C4
3D823D94
39C1F900
3D65191C
3D837054
BD582896
BD99F1B9
BCB48E50
BC92A028
3D0392E6
3D118E30
BD789967
BCB6AE92
BD99C3B2
BCAFFE88
BCBEADE8
BD8DF566
BCCBB588
BD003DFA
3D996A2A
BD000798
3D6F7470
BC9A89DA
3D392658
BD5343D0
3D34D85E
BD980DDC
BD92B3A6
3D8486F4
BD750535
BD3B97AC
BB2DAC60
3D860FD8
BCDA4148
3CD608E4
BD974231
3CBAC78C
BD8DCE7D
BC221298
3BA44050
3D939F82
3D0B2376
3D04DFFC
3D3DC5B2
BCD70322
BD149229
BCD4AD40
3D20A9FE
3D3A4694
3D1D93D4
3D0D0416
3ADEE240
BD795B4C
3D209A36
BCCB224A
3CCA4FE4
3BA0BA20
BD937494
BD4C70E0
3D574DFC
BD6F7B06
BD26BE21
3C365B70
3CD41310
3D0DB5FA
3D8CE8B4
BD234C92
BD7D96FE
BCA712EE
3D300696
3B35DEA0
BD98F894
3D79D0B8
3D0928E0
3D38023E
3A0FA400
3D8A9528
BD9A93A2
BCDCB2AA
3D275C7E
3D11CB20
3CA40668
3D0E76E2
BD86576E
3B5484C0
BD3BB81A
3CCE4180
3CC20408
BD4BA5F1
BD955F14
BD99CEEB
3D1B3968
3C0D9370
3D4F9FFC
BC7A22C8
BC20FEE0
BD1D6F32
3D97EC6C
3C7E5078
BD111D17
3D40B5CE
3D60B0F4
3D78BEBC
BC8BA668
3D4F40B0
BC5C1528
3D90DC42
BD82CAA2
BD2F6973
BC708388
BCCA3FAE
3D2D63B8
BD248F92
3CE7DE78
3D6154B4
BC2C8F50
3C90D168
BCC21372
BCEBD2B8
BCC6E4AA
BD4955ED
3D509ECC
3CDD63F0
3D2B1000
3CCFBF78
3D913FBE
BD6D8E79
3CC31344
BCA31EF0
3C0C70F8
BD047E53
3C0C58B0
BD265386
3D815258
3CFDDBA4
3D98A268
BD377258
3D16B95A
BCDEF54C
3D895348
3CA0FF18
BD9AD4A4
BD4E0B43
3D1915B0
3D6D16C0
BD1DD86A
3D738440
BD19AD25
BD08A5A0
B9DB1D00
BD827E54
3D901B8C
3D3FA5F6
BD6CE3A6
3D1C5DDA
BC90AE1E
BCDFEE8A
3BF48160
3CD9E3C8
3D642C30
BBB3B4B0
3D06A72A
3D3DCCF8
BC9A696C
BD96CB64
BD524C38
3D86149A
3D895698
3D924924
3D48A276
BBDE0180
BCBFF17A
3CCB966C
3C94CF28
BD8D8D10
3C615D30
3D2E8874
3D26E168
BC403C10
3CFB20A0
3D2AC7F0
3C8B0C60
BCCB94AE
BD951236
BC06D618
3B20AF60
BC0123B0
3CED2070
BD63AA3B
3CA58814
BC0695D8
BC917520
3CD2D450
3D5C1920
BD7E3248
3AE98240
3C784930
BCCEBCA8
BCE0BB96
3D5C11B4
3D72C6E4
BBA07750
3D492BB8
BD7E6C3C
3D6CF0E4
3C688528
3D0308F8
BD8D600F
3CB75A44
3C27F0E8
BAD02280
3C13F798
BC74F23C
3B09F040
BC1269A8
3C3511C8
3C421300
3D7022FC
3D66B1E0
BBF4CD30
BCCF0BBA
3D541908
3D3661B4
3CF63C60
3A616600
3C0712F0
BD1788EB
3D6E1D54
3CC6BB08
3D3D92D8
3A86EB00
BC8378D8
3D4CE274
3BA5CF60
3D0DB0BC
3AB45D00
BD0FEA58
3CCC32C8
3D987D5E
BC91A2E2
BD528B7D
3CFDE1DC
BD92A881
3ADFEA00
3CD75DA0
BD25DF85
3C6A01D8
BBB88B60
BD2A8C6D
BD849C90
BBFAE050
BBC2D8E0
BD5C2B41
3D37930A
BCD26734
BD8E9B05
BD27585B
BD3ABFFA
BD386002
BD8CC518
BCAF54F6
3C903C14
3CBFF25C
BC845CB6
3D1271A2
BCEE02DA
3D902C3E
BD6FAC3A
3D5BFAE4
3CD655FC
BD45EAF0
3BBA13A0
3D66FA68
3D1AA3DA
3CFC49E0
BC2C34C8
3C540D38
BD31C51B
BCF44A4C
3D54F71C
BD9202DD
BD458840
3D548214
3D2BE6CE
BD1CB5A8
3D528B5C
3CD339F0
3CBC6A90
3CF8FAA8
BCD1FC10
BD709D67
BD0F9B0C
BD8F0CF9
BD8B29ED
BD0584A8
3C849230
BCCA15DE
BD95BB90
3D7A427C
3D03A6C8
3D98F932
BC46DC78
3D634C58
BD6E9DA2
3D5FE2C4
3C3A16F8
3CCD9BF4
BD68DFAB
3B3E3B00
3C69D0B0
3D337188
3D0F5922
3D03F64A
3D37C0BA
3C2F11F8
3C192188
BD892D4F
3C68F490
3D673D54
3CBF0664
3D4287A4
3D3040D2
3D8F49B0
3D80EF2C
BBEFF130
BD41562A
3D03BC34
3D2409DA
BD27EC3E
BD935656
BC6C3850
3D474DAC
3D8A1174
BC6EC6F8
BBF5A030
3D6803B0
BD21F06E
BD8026AE
3B361D80
BCA52EA4
BD22C5D3
3C275A10
3D87E768
3D127BE8
3AB5F880
3C1AB418
3D0C4B88
BD128DC7
3D517138
BD11DADD
BD97A4C9
3D75A864
BD1278DF
BCBE33BC
BD5F2052
3C6DDAB0
BC73A9E0
BCF99782
3D163BD0
3D60AC30
3D9A27DE
BCDA57E2
BC9AE38E
3CD9FC8C
3CBC4E1C
BBD08AD0
BC053590
BD537DC4
BC90F1B8
BD6FFE94
BD54A404
3D88F59E
BD966F4E
3BAAFE50
3D91165E
3C6BB498
3C130038
BD55CF4D
3D1143BC
3D875A08
BC6DCC8C
BD09DCFC
BD8C2D2E
3BAEB000
BD89DE58
3CC3C1D0
BCB787B0
3D341F12
3CF557B8
3D8EE29C
3C412C50
BC9923C2
3D5547D4
BD6794D3
BCF715CC
3D920802
BB8B6510
3D58DD4C
3C621D80
BD92396E
BD411B91
BD8043C2
3D00FA2E
BCAEA96A
3CCA9A40
BC9D2308
BB42CD00
3D8BF42A
3B99CF20
3C86901C
3D87CDF8
BD29D32C
3D72A998
BC0B9490
BD2C9C2A
3CBB5680
3D9504D6
3B93BD90
3B1337A0
3D480D6C
3D1A6106
BD4EF67F
3D05AF28
BC519430
3D50EDC4
3D71D618
BD695054
BD99295D
3BC53240
3D880122
BCBE4900
BCCE62BA
3D606CB4
3D1A38CE
3D5A3CD8
BC2C4018
BCBCFD28
3D89615A
3D1DF9B4
BC767BFC
3C1D47C0
BD42FABC
3BD15520
BD0DBD62
BD592C64
BC380DD0
BD5DC376
BCBB8A7E
3D81A010
3D1B0D64
BD8B1F04
3D8F049E
BD8032B3
3AE3A380
3CAD2A98
BCAF0DDE
3C5E23A0
BC9847B8
3CBBBFD8
3D95151C
3D50C76C
BD8CF4C8
BD5BCEEA
BC912064
3D9372C4
3D0C0C4E
BC2FD2C0
3D2C86BA
BD73ECAA
BCA11A5E
BD6DDF06
3D283CB8
3D6CA5B4
3D2F5482
BCAEEECE
3C84E30C
BCB66280
BD8ED55A
BCE608D4
3D825982
BD874F8A
BD08DF7C
BD8584CA
BD19251C
BCA2A336
BC903C30
BD76F80C
3CE1C0E0
3C8A6770
BD803005
BD7438ED
3D221C8A
3CD48210
3CE41C24
3CD021FC
BC090560
BD7D6BB2
BD3A4E3B
3B6B7A80
BD456B11
BB61DD40
BD94038B
BD4BB5E0
3C7A0010
BAEC9BC0
BD855CA0
3C3895F0
3CBE27A8
BBF976C0
3C4CA6B8
3BB8FA00
3BF523C0
3D4F64B4
3D8A9D52
3D33F504
BBBAAB60
3D63546C
BD4323A7
BC8B37EE
BBD9DA00
3D6F7104
3CEF2C4C
3D0F5DDE
BC81776E
BD25D9E7
3D325602
BCD50AB6
3D1A4296
3CFB2B40
BD9A608B
3D50E598
BD67CBC2
BD5D530C
3CE6D26C
3D2AAF84
3D16717A
3CF0A7A0
BD706D6A
3D7F4854
3D789DD4
3D3528B0
BD7C3218
BD8BF42B
3B06D220
BD76C491
BCE86062
3D390B88
3CA1E564
3C6E6500
3D82401A
BBE22010
BD5657C2
3C46E5E0
BCE2BC18
3D88C79E
BD5E631E
BD981C7D
BD088751
3D0D1AD2
3D07326E
3C7160E0
BD718ACD
3D3C9712
BD969201
BCE9BCAE
3D91C614
3CE81228
3C5CC3F0
3D720B50
3C0D0D28
3C4E1460
3D996C1C
BCEA8DDC
BD645D2A
BCEF0492
3C8AD7A0
BC7CF7D8
BD8093A3
BD94439D
3BE68150
BC657854
3D79A5E4
BD053252
BD683BE4
BD6E469C
BD4A139B
BC8C687A
BCE0641E
BCDC2ABE
3D9787CE
3CD46F14
BB5DF7C0
BD5CB786
3D43569E
3D48E478
BD613E04
3D114A56
3D6F7188
BB4A1400
BC9BDD7C
3D6AD8BC
3D977EF6
3C250708
BD91C55E
BD4FE0D2
BD3E7B53
3D8BCD5A
3D1042E4
3D22C652
3D180C48
3CF669CC
3D3C7D9A
BD65A81A
3D4C693C
BD903B44
3D03854E
3C33ED98
BD45E48A
BD8FCD59
3BB8FB10
BD0AFB82
3C5387C0
BD5206A4
BCAE6994
BD3C6F7A
BD096B17
BC4470D0
3D353804
BC5E2E68
3D1202CC
3C8098FC
BD6105FB
3D1D4BAC
BD9166F2
BC83BDE4
BCBE1768
BB931040
BBCB4D50
BA16C800
BD7FE48E
3A38D180
3D3A7686
BD8BD5AE
3CBFF7F8
3D1D424A
3CF7543C
3D33C70A
BC3A7EE0
BD9A4D89
BC989B58
BD648D82
BCA6D8AC
BD9A46D0
3AC9C1C0
3CF6F128
3D242E02
3D09B2FC
3D8CC412
BD964EBA
3CE370E8
3C187A08
BD87EC3A
BD56C00B
BCB1106E
3C512720
BD9A9032
BCE29D68
3C1533E0
3D581C68
3D78EF5C
3D625E18
3D91E168
3CBE7A24
3C63E890
BD6AC7AE
3C87FF04
BD24C85E
3C8FB584
BD895105
BCA6CD18
BD5D9294
BD884AB2
3D28FD44
3D7826C8
BD1CCB1D
3CB6D420
3D2D3C18
3D3B12B0
BD2CC661
BC8C4CB6
3C9E9B50
BD290630
3CBAC154
3CC7D348
39051800
3D8168B4
3D63E404
3D9294FC
3C045250
BD0487A1
3C524770
BD93C3CC
BC459E58
3CE24D58
3D64D93C
BCBD7A98
3D635EB8
3D3CFDE0
3D3BDA34
3CBC0938
3CAC9914
BCB9C4A8
BCFDD9EE
3D84CC10
3D8E1364
3CD97DC8
3C52CEE0
BD8652B9
BD44F26E
3CD83F38
BC98BD56
3D0EC4EE
3D8F640C
3BE8F3D0
BD43FA26
3D20A914
BCF9B058
BD0BB8EC
3D4DDEEC
BCAA1D84
3CC8C4C8
BC8478DA
3D079E92
3C5612A0
BD9815AE
3C3A1A28
BCD79A2A
BC80DDC4
3D4F911C
BD2161F9
BCD2B90A
BD193F02
3B4489C0
BD268599
BAF3F9C0
BD3E5038
3D84ACD8
BD441B62
3D508238
3D82FA90
BD37F788
BD3ABFCE
BD888A3C
3D7A0BFC
3D90024E
3D7E640C
3BB56840
3CAECE70
BCA65752
3D902B3C
3BBE4310
BD8D1D94
3D8A75CC
BCF6A67C
BD990B88
3D00FB64
3D794530
3D2935BC
3D7C8F78
BB581740
3D31B3DE
BC7F12D4
3C9C7DD4
BCBF493E
3D91019C
BCBBBFF6
3D3A747E
BD471D1D
BCB5B486
BD6207D0
BD88716F
3CA974F0
BD674208
BD85EF1B
BB0B6C20
BD0BC50E
BC9DF37E
3D837C7E
BCE55660
BD080DF1
3D137B7A
3D0AB71C
BD30BAA8
BD4B1F0C
BD4229CC
BD157CCE
BC83A358
BC971C44
3CA52898
3CF84708
BD973752
BC4464E0
3D458094
3CB2D4A0
3D77DA54
39421600
BCDE3CFC
3CE95008
BD326EED
3D90136A
BCAE396C
BBC6C800
3D5F633C
BCF15A74
3D02FC90
3CA9F898
BBE037D0
3C13E560
BD5879B4
3D200490
3A2C4E00
BC2D3D18
3D607C7C
BD59EFB0
BBD6C390
3D7A4B04
BD65AF08
3D8A2098
3D859770
3D922A8A
3BE14220
3D78C770
BD7DE9BA
BD96A528
3D30FDA6
3C8FA92C
3CCDD040
BD61F8F6
3D621CD8
BD671F9B
BD7F6DEA
3C95E6DC
BD695CA7
3C59D0E0
BC906DD2
BD54EB04
3C113558
3D881C1E
BCBDADDE
3D004240
BC5333D0
3D9B5726
BD13F170
BD7B591C
B885CC00
BB2894A0
BD2A82E5
BB2FB340
BD31FA07
BBF80E60
BBDB3EB0
3D832272
3D913204
3D35E718
BD01CF31
3A5B3680
3D8FEAF6
BC3BBAB0
3D33C06A
BCB3BF68
3D5AD218
3D2C1280
BD99DECA
3A4F1C80
BD133027
3D162E64
3CE4D0F4
3D4C40B8
3D630AFC
BD3CBA42
3D67CF3C
3D5A53D8
BD0A919B
BCDB85CE
BCF990C0
3D8BB93C
3C3BB2E0
3D857FC2
39481200
3CFC1104
3CB6DC10
BCCF0D18
3D6D6560
3D08C370
3A632400
BB48CBE0
3D471816
BCCA0C24
3D63DEAC
3CAC2ED8
BBC4B8C0
BC95F55E
BD9112DD
BD733A44
3A950A80
3D8D115A
3B84D260
3BBBE840
BD0ACB8B
BD05A966
BD24C033
3D7F5488
3B6283C0
BCDDDDF8
BD513B59
BD161D91
3D258C9E
BC6A7190
BD86AF3C
3D8E03B8
3D80401E
3C8C6DF0
3D39BC6A
BCAF0584
BD6AC5BA
BD6DE312
3CBECEB8
3CD2BA84
3D89A62C
BD5D383C
BD8460C0
3D66902C
BCA6CF68
BD51F50F
3D798D1C
3C689E20
3C84E7D4
BC1EEF98
3D2F57A8
BCF183AA
3D874878
BC771B44
BCCB1E6A
BBD353C0
3D0C66FA
3D9333F8
3BBDC130
3D516624
BCC28CFA
3D3912E6
BD49A48A
3CF39420
BD897531
3D8F0720
3CEA41E8
BD52D839
3B70DA80
BC9A0EEC
BD8B3113
3C7538D0
3D972846
3D75780C
3D80346A
3B8F7280
BD961DF7
3A4FB800
3D8D1C9A
BC958C78
3CE41418
3CB295B4
BD8E4A71
3CB21830
BCAEEB76
BCD3689C
3D5B1804
3D437B7E
BD62093C
BD1824AA
BD7F06B6
3D06E7FE
BCE399C4
BB83A6A0
BD2399D1
BB69F8A0
3CC5B648
3B0F70E0
3D06DAC8
B99E0400
3CB77368
3C5F4E70
3D7A925C
3D974C58
BD886636
BD460674
BCCDDDEA
BD5B4865
3D27B142
3D1B6474
3D8DC5DC
BD5B4530
3CB70F54
3D626670
3C2A7A78
3D0F0ADC
BD9A2EAB
BD4BBBD6
BCE4069C
3C32CC30
3D0093F0
BD642C1E
3D956EAC
BD153C0E
BD682285
BB5125E0
3D5AA1C0
3D614414
BD61D1CA
3D1EF160
BC4AA0C8
BD6F4CB1
3D8AA020
3D24D11A
BD5F1CB6
BD887C8B
BD2BC56C
BD5AD3F4
BD9AA2C2
BD90806C
3B936070
3D3AC42C
BCBB0A0C
BD6C73A7
BBAB38D0
3A999500
BC9E15DC
3D339994
BCD04E80
BD8EC63A
3B263780
3D539038
3C3BC980
BD77BDAA
BC5B1E50
BD9392B6
B99C3400
BC5F5CB4
3CDB0C48
BD8A582F
3D66B3E8
3D0307F0
3D922518
BD956536
3D01424C
3CD8E24C
3D1D562C
3CC1524C
3D9AA9F6
BCDE78D8
BD82379A
3D47DEDC
BD47335E
3C1A66C0
3CA0B054
3D88822A
3C987A80
3C78ABB8
3CF297C4
BD15B8DE
BCEF14F0
BD8F25B4
3C81F044
BD61563A
BD95DCF0
BD946FF8
3D67D9A4
3CA8B320
3D32B00A
3BC659C0
BD4EC1C8
3D73DC20
3BD20730
3CFBEB9C
3D85FFDA
3D5E3EAC
BD1DE0F5
BD614846
BD59C2EA
BCD00662
3C82AC58
BD4F4172
3B2A1460
BC74983C
3D901894
3C9A5284
3D83B306
BCD21D7C
BD017FB5
3D2F20E6
BD47326C
3BC062C0
3A275980
3D7CCB10
3D700FDC
BD3DB8EF
3CD687D0
BD245E6D
BB40FB00
3D3DA9DC
BBB086C0
BB8B32A0
BD2B8D15
BD518298
3C632818
BC39F280
3D6DBD3C
3953E000
3D289432
BD139F4B
3D4DC34C
BD9591C5
BCD1F91A
BC8DB39A
3B587A40
3C94BC20
3D8E929E
3D80BA36
3D431E7C
BD8CB451
3CF1CF20
BB73FAC0
3BC58BE0
BCEC89F6
BCBAB6F4
3CCAC678
BD012BE4
BD0EE3B0
BC0007D8
BD31AE0E
3D23F1DE
BC08A140
3D43F6C0
3C70E5E8
3C882D44
3D91E528
BD990CDC
BD0CF710
3D68A418
BCA95C2C
BCFAB8CA
BD26F774
3D6FD910
BD5CDA16
BCF53C10
3D04533E
3CC42220
3D03F800
BC605ECC
BCC69B10
BD8A1050
3D13F8FE
3CD79A8C
BBF64AC0
BB1B8180
BC3801C0
3C6DB9B8
3C446310
BD55FB04
3B444960
BCA8CDE8
BD3402E5
BB5326C0
3AC9BEC0
BC5C8864
BC7805AC
3C9774FC
BD422B9A
3D99FDEE
3D01E29A
3B8041E0
BD1F4164
3D967020
BD8661D6
BC2E8670
BD6E2724
BD819E19
BC38B4A0
BC3ECEE0
3CEA8B64
BD1DDB6F
BB1EB440
3CB17480
3D99FBD4
3C62C558
BD3327E5
3CFF0F68
3D5566C8
3CF43D00
3C10CE48
BD80164D
3D8EE394
BC786C70
BC7D0BC0
3C342DD8
BD2ABD0F
3D939736
3C7B7D70
3D03A5BC
BCB0F3FC
BCB50A6C
BD448DD4
BCED1CD2
BD38DB6A
BD1E73B9
BD382626
3CFB3E20
BBF38420
BD0E9EEE
BD59EBCC
BD52D614
3CF29708
BC749AA8
3D3CFE20
3D81B914
3A898D80
3CCD3274
3C07BCD8
BD006486
3CEE52B8
BD509D44
3D182D2C
3CB75218
3BAD0790
3D290A9C
BD10BA4F
BD81997C
BD6E9715
3D95E0CE
3D5095F8
3D305854
3D90021C
3CC0A514
3D92BFFC
3C9322B0
BD96CDB0
3D501008
BD127442
3D5EAD6C
BD154513
BD025AAF
3A36B100
3D317E48
BC82A576
3D2C68A6
BD29E91F
3D0B80CA
BD86D5F7
BD4C4A54
3D444C4C
3D96D486
BCB644A6
3C884928
BD205A5F
BCF40F66
3CAC7970
3D8E04CC
3D0F7044
BC926A0A
3D86E7D0
BD1729FE
3CEAB1FC
BB41B180
3CE8E2C4
3D4D4B68
3D8B96B4
BD807BFA
BD66D15F
BD857BFA
BBDEF700
3D95EF14
BD1022C7
BC2F4418
BD82115C
3D53F43C
BAA11340
BD984930
3CC5E588
3D32294A
BD2F8206
3D74BCE4
3D80404C
BD5621FA
BCC370E2
BC5F764C
3D383D78
3CCA187C
BCAAB796
3D53B140
3D200944
3D30A5F6
BB01E100
3D99B4C4
3D831742
BD44E75C
BD1B0E39
BCC2C4D8
BD1A46BA
BD74FE5F
3D7B52F4
3D4FBCE4
3D7155F0
BCEAED90
3D5FF6A0
BD100F51
BD84FBFC
3D1202CC
BCFCEB2A
3CD6924C
3CBA9C30
BD85EB43
BD7E9903
BD663892
BB6FB940
3D22B310
3D1DC308
3BA94B70
3B63AE60
BCA6E932
3D02978C
3D1257D4
3D7A3690
3D799E24
BD11170D
BCBF58BC
BCD1E030
BD7AA1B7
BC8C0CF2
BD3EC694
BD1D0D4F
3D3B755C
3D80072C
BD0BF2C8
BD28C8E4
3D8DEF0C
BCC497D0
BD836EDA
BD131755
BCFA3CF0
BD923590
3C8FC000
BD1C9A41
3B8ED540
BD6BF3E5
3D2958DE
BBCDC890
3A022400
3D0B2658
3BAC8280
3D474802
3D67DB40
BCA76B88
3C04EFB0
3D4B9284
3D89DBAA
BD797CE8
BD81D20B
BD642115
3CB792A8
3BF49A40
3D7B6520
3D3AD092
BD96747A
3D942FF0
BC43F0F8
BBBDFED0
BD53850A
BC832428
3D5E7D54
3D893454
3C9A3F6C
3CD9906C
B9C6B100
3AC19500
BCDD947A
3D80DF6E
3D8DE4F8
BAFA0B00
3D9773DC
3D0F8972
3C92A93C
3D99CE14
3D1D5290
3D96C224
3D35F4EE
3D938B04
3D7EBF54
BD08E079
BD1986E7
3D63BB1C
3D83977C
3D91A4C4
BCF955BC
BCE3AAC8
3D3D3954
3D7E3340
BD94F6D2
BB666060
3C27FC50
BD2BB14B
3D2C6054
BD146EE6
BD976C96
BCF8B3B8
3CE797DC
3D018C34
BD88A0A6
BD4168EE
BCC6AD8E
BD9807E8
3D464D6E
3D8336B8
BD4291F4
BCC0FA7E
3CCCD790
BC08D630
3D65CD0C
BD8D68AC
BCC1D498
3D84ECEC
BB908880
BBC4D2C0
BC9ABDBA
BC5B7560
3D8F7264
BD05A402
BD24CA7E
BD0C07A1
3CACFB5C
3D796280
3D23E24C
3C850BDC
BD303256
3D5A6914
BC94617A
3BEF4120
BB35F4C0
3CAAA71C
3D0B001A
BD79F95C
3D85F4E4
3D2EBA48
3D5ECA1C
3D1F9DC6
3D11FFE0
BCF1B260
3C39F180
3D7200C8
BC96FE08
BCFACA72
BCD999C4
3C4806F8
3D27B9CE
3C076598
3D21F39A
3C98D7C4
3D2FE952
BC260C50
3D932E74
3CC6B924
3D2AB2AC
394C7400
3C1B3AD8
3CD15C7C
3B7BD480
BCB116BC
3CAC2154
BD66936E
3CBBC864
BD84A56C
BD868CF8
3D96814C
3D33092C
BC15CAC8
BC85304A
BD9A8E84
BC920046
BD6F0956
3D12F628
3D8259A8
3D1BD87E
3C54F0B0
3D39537C
3D76F140
3D6C1634
BD0DDAD0
3D3336A6
BD67C059
BD96DC45
3D4D4B4C
3D2EA904
BB6C8980
3D1F22CE
BCDA7658
BB5BBF00
3D0D8064
BD5EE76E
BD780BE0
BC121B90
BD83335E
3D951C66
BD0ECE8E
3BAB9190
3D21AD5C
BD74A6D0
BCBAC2C4
3CBA6DD8
BCA4352A
BC48BC68
3D8703B6
BCB15A86
3C161B38
3D8FD562
3D5BACA4
BD6BDD82
3CFDE490
BD2BCE23
3BFF7970
3D96A942
3CFE53D4
3D909D9E
3CF94738
3CD91C2C
BD7F89E2
BCB4A00C
BD21ADDA
3D13F432
BBBB13E0
BBE9D760
3D8D11C2
BD028E12
3D6391BC
BD792718
BABBF9C0
3D225146
3D80C23C
BCA39992
3D187304
BD3A5D4F
BD8679F2
3D357364
3C9D1A74
3D64A650
3D37A7A6
BD7E617D
3D1964EA
BC59EDB8
BC9046E6
BD04B9A5
BD16F77B
BD8DE0FC
3D1D86F8
3CEAE7B8
3D24FE50
BD96E30D
3D088394
3D23CCE6
BD65552E
BD5B9066
3D14A724
BD1BFF40
3D3A33D6
3B7EAA20
3D3658E0
BD6FCEB6
3D35B310
3CF1D4A0
BD35CC6E
3CA81BD4
BC299590
BD90EA72
3D8B5D2E
BD70EA2C
3D59678C
BD50D0D6
3B67BB00
3CAC9344
BD107F4B
3D28D49C
BD790BB2
3BACDA00
3C4A8EB8
3A0B2580
3D6D0608
3D62F2BC
3D35CA04
3D8F0BD0
3D793F38
3D8D7782
BD8C9961
BD86A91D
BD6C6948
BD8128F0
BCA3C790
3D7E9A80
3D564888
BD5E029E
BD3F5F0A
3AD39440
BD9B426F
3D053812
BA6D9D00
3CD6C9C0
BC443C30
BD95AE76
B8D35800
BC3EFBC0
3CB0B4C8
BD92F6FF
3D7DBFB4
3D5E2870
3CF22CE4
3D927C60
BCBD1F42
3D027638
3D8913C0
3D2DDBBA
BD0557E1
3D69B2C8
BD32082D
3D8EB5A2
BD80CAD6
BD53F230
3D00880E
BD007BF0
3C9B715C
BD009029
BD077EC9
BD3A5286
3D3939FC
BB9FF740
3C713928
BCB15C14
BD61855C
3CB3DBC8
3CF4FBF4
BB167080
BD7E02CF
39C57200
BC176888
BC82A2C4
3D6B5F40
BCCC44B6
3CA9EC90
BD94FCF9
3D586468
3CD95D30
BD93E7C6
BC494AC0
BA9D5EC0
BCB0B47C
3CE7B508
3D987034
3D6DDB78
3CBAD868
3CBECB44
BD31F164
B9B26900
BD3B2A72
BD3D4506
3D614CDC
3CC526EC
3B4DC680
3CEE3C78
3D95113C
3D4DB200
BCE6C88A
BD97D298
3D1DB5A0
3D47B152
BB41FF00
BCFA1C04
3D784420
3C3B46B0
3D77E8AC
BD83AC20
BD97E508
BD78E90A
3D2A23F4
BBA4DB20
BC514A00
BD4F0F5A
BD99EDE1
BC12A2C8
BD4C01D4
BD02893A
3D8A7C06
3D42DD2A
BC4FC188
BB1B7940
3B4383E0
BD6B957C
3CAAEBF4
3CA185C4
3D749178
BD96D040
BD7F2B91
B9617400
BCB2BA32
3BDA5CF0
3D891128
BCB5411C
BD80D764
3CE6DA8C
3CC664D4
3C778208
BD8B9126
BCE85D3C
BB530380
3D6DEE98
BD233938
BCD86FB8
BC64774C
BC9DE964
3CF0293C
BC21C838
BD297F34
BC990558
BC41B150
BD0468E8
BD2042AC
3D26DD80
BBC77C10
BD53EE6E
BBB58B00
3D0300F8
BD4FE1AC
3C945D68
BCDEFBF0
BCEE58FC
3CB8AC58
BD6A2C78
3C1540F0
BD7BBA81
BD9B4034
BBD60F70
3AF34AC0
BC18B620
BD8BFE84
BA49BE00
BD3C0149
3C576D48
3D34F87A
3CDA5EB0
BD113CBE
3C34B828
3C92C368
BD8ED184
BCCD510E
3C851810
3C04EBE0
BD9B5848
3D44BD66
BCB25A0A
3C80F250
BD4A8974
3D9711C6
BD1FEA43
BD4F13DA
3D85801E
3D807FE0
3C83CE30
BD038B5D
BD71595A
BD078480
BD7D8B16
BCD8B568
BC52EAF8
3CA56BB4
3D17A4A0
BD8E1BD5
3D7B875C
BD894B09
3CEBA4A8
3D45DE94
BD627DAD
BCCF1290
3D89660A
BBA81470
3D5523EC
3D458B8A
3C60DF90
BC57DA80
3D702910
BD73DB76
3D3C4E52
BD2DA24A
3D33967C
BD5D6DAA
3C5CF440
BD1924FA
3CA010C8
BC454E88
3D7E5D20
3D8AE2A0
3C85C024
3D8FED5C
BD6067E1
BD54DBEC
BD06F791
3CE413DC
3D36B4D6
BD8B9228
BD5A87A8
BD44A944
BA122700
BD350BAD
BD1FE963
3D8647BA
3CB5A480
3D80129E
3D906854
BC6AB03C
BCF71398
BCD0AC1E
3D8F0D18
3CCB6694
BD8AF777
BD114183
BD288718
BD6C46CD
3C86DC1C
BD6C8224
BD7E395D
3C89894C
3D1E1E2E
3B840D50
3D3A8E08
BD0E2A87
3C4093C8
3D00EB4A
BD094AB7
BCC9AC40
3C71E7D8
3D7DC934
3C8380B4
BD8D8EC8
BD41FB4B
3D831D02
BCD13788
3BDCFAE0
BD8E0A4E
BBD90790
3D01106E
3C81585C
BCBC8AD8
BD6AEB66
3CD97140
3AC49280
BD535804
3C1B2118
BCC99ADA
3D5622F4
3CCAC4A4
3D485562
3D58FE30
3B305980
3CABB2BC
BC716D08
BC856416
BD03F71B
3B8FC1D0
3D8EB486
BD180453
BD55E99F
3BAEB880
BD1FD52A
3D953820
BD144563
3D8373C2
3D7860E0
3B8B90D0
3D5B40C4
3B188D00
BD21043F
BD8554A9
BCCCBA70
3D403E1A
BBA081A0
BC9A9B04
BBC68360
BCE6CF12
3C47EF40
BD4773A0
3D60C670
BD96948D
3D82C7BE
BCE128E2
3CCC6FE4
BCD4664E
BD1B9673
BBD4EE80
BC76C11C
BCF29FD0
BD8EE021
BD0245F8
3C98AA88
3D701DB4
3D2E5CDA
BBA79DD0
BC91BA5A
BC092778
3D89ABA4
3D2BA6D0
3D416790
BC265C28
BCA05C2C
3D58FECC
BD81150C
BD01925F
3D3252EA
3D97C5AC
BCDF2AF4
BCCB8780
3D95A4FC
3D4B4D58
3D3EE3FE
BD55A366
BD27BE14
BC9993AE
3A687780
BCDF1B28
3D803FBA
BD3143BC
BD747A96
BCBDA3F4
3D162378
3CF57780
3D8595D2
BD8B6771
BD65A81F
BD061E94
BB335680
3D3ED2F4
3B0448E0
3C8E2734
BD6E0739
BD4563B3
BC5F655C
BC953F00
3D258368
BD75201E
BD991135
3D099680
BD3F6266
3CB3A39C
3CC31204
BCC40FC8
3D4F812C
3D852E5C
3CC9E33C
3CC84F64
3D4610BA
BD7506F9
BCE15896
3D2C4CA4
BD9404F8
BD12E88B
BC6A78DC
BD88DE6E
3D031DEE
BD99076B
3CB1B708
BCE0BADC
3C6C4A60
BCCBB59C
BC2902F8
3D3AF07E
3D64C798
3D110816
3D7AC1E8
3D89DF20
3C3FCA38
BD71BE64
3D0173FE
BD63E474
3CE08548
BC8B5A30
BD8AA157
3C3C3910
3D2CFDC0
3D27AA06
3D965BFE
3D61D5DC
BD75E9C6
BD92D185
3D66378C
BD382F00
3D507E6C
BC5E7ABC
3C82265C
BCDAFC10
BB5F8580
3CBBB5C0
BD4E0B48
3B808050
BC1CA498
3D250812
BD61D5C2
3D6C3290
3D69D708
3BF08EE0
BCCDC0A2
BD1C642D
3D498C44
BD3AFE8B
3D665350
3B0D2980
BD866C13
BC7B4D80
3D899CF4
3C6EE228
3D7170C0
3BA36BA0
3D741860
3D4B7978
3D83E3A4
3CDC75DC
BD8C734F
BD8909C1
3CD14DAC
3CFC445C
BD7F1E42
3D6FA05C
BC472418
3C4DE6E0
BD190FF0
BD00D7A3
BCEE9714
3CAF3CBC
3C6EF958
3B79C880
BCA1954C
3CE55390
BD94A0F6
BD872FD7
BD19CB3E
3D44CA9C
3D581B84
3D491308
3D808AA8
3D603C90
3D7C3E74
BD299C81
3D1FD9B4
BD4811BA
BC96C74E
3D6CDDF4
BC2C72C0
3C87ACE8
3CC3AC5C
BC6ADC98
3CF5BC5C
3D5F7794
3BB227C0
BD62769C
BD78A22C
BD36B8F9
BD1D35E3
BCA2A9BE
3D616D1C
3C5C3400
3CCD03C4
3B98F770
3CB8DD54
3D9551FE
BD7FACCE
3D2427E4
BD834770
3BD80270
BD6135AE
3BF75A90
3CE44118
BCD41716
3D99E792
BC8AB9A8
3BE2DE40
BD68B602
BCE13BAE
3C18DD18
BCC57402
3D8CA266
BD7206AA
3C99A1A0
BC0D1F00
3D28CBFC
BC9E5E7A
3C47DED8
3CD93C88
BD88DC6D
3CCD1168
BD155064
BCF102A6
3CE8FF34
BCCF97D4
3D85C052
BD7717A0
3CB2652C
BD14B9B7
BCDA11BC
BC7E4EB4
B9C05B00
BCB8DF02
3C8CD8A0
3D93B3E0
BD34565E
BD8E99DF
BC3F5958
3D64B890
BD257AFF
3D6CDB54
3CD7D714
3C9FCDC0
BBF29A80
3D6B7A10
BD33791C
3D9AF808
3D229F86
BC0B2D08
BD4FAC2A
BD2F84B3
BD1EBC34
BC9C4A72
3D1A53A4
BC488C20
3D583474
BD7BFE5E
BCE9CF10
BD558E0E
BD520C52
3D06F7A8
3BB9B150
BD3A409E
BBC4CAD0
BD495A8A
BC3D2B70
BCD9ED16
3D6FC38C
3D6FA184
3D832C32
BD7806A3
BD2FF1A4
3D885046
BCF5117E
BC95EBCC
3CA13334
BD92F57A
BD2BC40E
3D8AEFDC
BD2117E6
3AD68BC0
BC197868
BD1BBD3A
BC8B48AE
3D666384
3A333180
BD5AC9DF
BD2829D7
BD4F2805
3D8E3FF0
BD34F6EB
3D1D0F96
BD60A6FB
3D5D0168
3D6AA668
BC1EC438
BCA02E86
3CF91020
3CA550F0
3D33A0DA
BC88B02E
3D555530
3D8C0732
BCBC386E
BC3436B8
BA9AB640
3D286034
3D75AEE8
3CAF2E9C
BD8ECF3F
BD3D959E
BBD5B0F0
BD320BD2
3B8D6860
BCE4C2A4
3CF4C42C
BD16F649
BD824E8B
3D804C5A
BD25B1DF
BC9EA98E
BCD55CA0
BB7213C0
BD91D192
3CDE1B7C
BD702C84
BD7E25F5
BD93E432
3BA66AA0
BD7E47F8
BD9553EF
3CFFD368
BD453404
BD68CAEE
BD54BAC4
3BD570D0
3D230F86
BD5A0E34
3D12F836
BCCFE76E
3D2B6DB6
3BDE7B30
BD03F56A
BD3DCF61
BC0D4E78
BD7176A2
3CAB7A7C
3C0D49C0
BC858E8C
BB060420
BD57E9B6
3C0E18C0
BD52D87D
3CE38EC0
3CB0C974
3D90ADAC
3BE00F40
BD814B95
BD59C121
BD2FFBFD
BD98BEC9
3D08A468
3C7299E0
3D3836BE
BD850602
BD2859EC
BBB1DE10
BD495D8F
3D60BEFC
BD1E86DD
BD1B1BE5
3CBF8234
3D1FDD36
BD652B62
3D4EF200
3BC227E0
BBC70A70
3BE82E80
BCDA2212
BD58244B
3D28191C
3D910382
BD1412E6
BD8A1B9C
3D880770
BD532286
3D230E92
3CF0EF20
3D344604
BCB86616
BD226D2F
BD11BC7B
BD284CF3
BC7FFACC
BD544A16
3B699C00
BD771FCA
3D900A38
BD88C99C
3D793FB0
BD85E78A
BD115D32
BCC389F2
B9674800
3D61DE18
3D45A4AE
BD353927
BD5F59EA
BC8EC89C
BD108965
BCFD4962
BD5C73BC
3C51E500
3D95FC76
BC4A4470
BCE18FD8
BD0F3CDC
BD54E645
BBF0F760
BD82549E
BCFC63EC
BD3E90AA
BD1123F7
BD8728E3
BD7B4734
BD88CD6F
3BA28A30
3C8EAC04
BD982097
3CC4700C
3D896578
BD71C05A
3D7ED370
3D8FCE9C
3D33EFB2
3CC83934
BCA96028
BCE8A47A
3D6150C4
3D741AC4
3C61F0E8
BD17AC24
3D2EC2BA
3D1BC30E
3D2E7048
3C645948
BCE61EB4
BCC475CA
BCF4FDDC
BD04EC93
3D3CC506
3D11DD34
BCBC9980
BD812C90
3D81DACE
3D7BA210
3D640DF0
BD020885
BC7A3244
BCCB1A5A
3D7C9630
3D53C2F8
BD67C610
BD57C1E4
BC5D09AC
3D86B484
3D134BD6
BCC83C18
BD6F273A
BBF36220
3D99DD68
3B40B200
BD0CA361
BD986DCA
3D5CE160
BD113EAE
3BE53040
BCC115CC
BC5F9048
B9E92A00
3CDBB0E0
3D940BCE
3B3B29A0
BCE0C73E
3CA00250
3D16F4DC
BD008F53
BC4B8E60
3CA15258
3D8CCEF2
3D86AE24
3D08B448
BD618E88
3B1046C0
BBB31970
3C9C7790
3D955802
BD012441
3D4DFC5C
3D698FC8
BD8FF939
3D312ED0
BD559166
3D9A6CE4
3C19E008
3D3CD5FA
BCA7E41C
3C505CC8
3D5BA250
BD9076F2
3D093714
BCFD7BD2
3C8A2D24
BD1DA065
BD86F493
3D0E1BA0
B939EC00
BAF00280
3D31D16A
3C5188A8
3C260128
3D433B78
BC4ACE10
BD41C474
3D1F4F62
3D8B3168
BD69B8A2
3D66DBBC
BC1368B8
3C3ACDD8
BCF4BF62
3D2A06D8
3D69164C
3D522694
3D8A4DC2
3D38979C
BD92ACFF
BCAF6A88
3D1FBA32
3CE37F00
BD876F7B
3C705510
BD910493
3D6855D0
BD072B0B
3D8517D0
3D44C4A2
BC61F1D4
3CE3FE68
3D739918
3D0D3076
3D9404C0
3D56978C
3D88ED36
BD8AE894
3D8CA376
BD5A071A
3CAF0080
BB2501E0
BD1D760D
BD4F5BAC
BC9DC086
3D6F0958
3D83667E
3D36D91A
3CB9E44C
BD90868C
BB794800
BD46ABD8
3D181226
3C9E35D8
3D37009E
3CC3F930
BD3512C2
BD9782DA
3B2875A0
3C2A81A0
BBD8E9F0
3D79CED4
BC272680
3C57A7C0
3CD2580C
BD1EDA8C
3D6EA4FC
BD36F09D
3D43354C
BD8F9012
3D871D0C
3C303D88
3D127A50
BC676E64
BD4B8CBE
BD354DFC
3D00A7A6
3D8807F6
BD860460
3D6A1AC4
BC6D9B2C
3C137800
BCF2D866
3D8E5C0A
3D6A69F0
3D422706
BC859AA0
BD930186
BD8FD0AE
BD82A3B5
BD748EB2
BD41186A
3A954300
BD4AC0BA
3D7BAB6C
3C842F1C
BD6C20D2
BD1828BA
BD6633E1
BD289349
3B9FD810
BD0355F2
BD969CC3
BD4BAF44
3B24EDC0
BCBE34E0
3CFB95AC
3C7442C8
3BD9F3F0
3D7A1AD8
BCF8ED90
BD16A1A7
BD05E73A
3D1DE788
BC8409E2
3D040D96
3D3AE236
BD55BDB8
BD654F02
3D0C6412
BCBBC552
BD77B482
3D809506
3CFB8F10
3D7C97C8
3D1B276C
BCCFDF60
39E5DC00
3D9AE23C
BD7CBA1D
BD2511AA
3D4D3FE0
3CCE2248
3B1DBD00
BCACA476
3A1A5280
BD7675FE
3D7DE0EC
3CFAC8A8
BD84D7E0
3BADE810
BCDFF40C
BD831EF2
BC803A2A
BD50C731
3D87A046
3D978DCA
3D85F472
BD201474
BCF7C7A6
3CBC0944
BD74E36D
BD55B487
3C8A50A4
BC0E8200
3D84853A
3D357034
3CE32B5C
BD19DD96
3D803CC4
3D4FF22C
3D8737D6
BC87486C
3D78D718
BD5F491C
3D3C1062
3D309116
BC507C00
3D430DAA
3C9496CC
BC18ABF0
BCAB80AE
3D88AF8E
BC96F5D4
BD1CF54A
3D5E9B04
3D0F0E7E
BD17AEA6
3D38C8FA
3D3AA8E8
BD30A7BE
BC634F10
3D7D4F2C
BD15CC9E
3D7FAB04
BD4B65B8
BD51C4E7
3D8BE296
3D77C9CC
3D445E82
3D187002
3D101936
B9161C00
3C270918
BCBFDB4E
BC7E60C8
BD4A5121
3D037550
BD4D2254
3D21A532
3D66BCBC
BC592DA8
3D51ACAC
BCDFDF80
3D3F40A8
3D778280
BCFADBC4
BC5EA470
BD248C18
BCA47A3E
BD92A71E
3D654630
BD2B6CD2
3D8E11B6
BD98BBB6
BD33044F
3C95424C
BD353C00
3D5DFF80
3D93BC28
BCE7DE8A
3D220CDA
BC714698
3D07256C
3CDFEFF4
BBF42810
3D2C5970
BC9A898C
3D91BB4A
3D7F8F7C
3CD8B3A8
3C9EF4DC
3D071E0E
3C57BD68
3D750068
BD6DEA30
3D891D00
3D8D8716
BD76912A
3D5C1C38
3D62F8FC
BD616218
3D1FCB4A
3D8C8018
BD289A24
BD650F39
3D207AF0
3D070078
3D93FC8E
B9C5B100
3D02F38C
3D1C9EE8
BD330D9D
BC792564
BC761A3C
3CA6D6EC
BD513F38
3CCB2DFC
BD664369
3C4E5500
3D1E0E30
3D31A15E
BD85EE48
3D8DCB08
BD06A7D0
BD173F5B
BD897CAA
BD13AEF0
3B0E6880
3D8E3B22
BCF07A3C
3D162CC2
3D5FDE10
BD0B0EAB
3D5DB54C
BD9805D6
3D8F8C0E
3D50246C
3CE32218
BB3201E0
3CC35ECC
3C067970
BD4B687E
3D3472D0
BD09E5B3
BB8B13F0
BBA56670
BD5F0310
BD84233C
BC6EFE80
BD095EC9
BCCE6DC6
BCA97D66
BC92E01C
BCE275E0
3C2BA478
BD4550D3
BD863084
BD32473D
3CBBCFB0
BCE848B0
3C5D14C0
BC45B708
BCDD6CAE
3C6C64D0
3BD21750
BCF1F0EC
BB9B4BD0
BD5C981E
3D1C84AA
3D5542F8
BD286F52
3D7CF79C
BCAF03B0
3C4739D0
BD542828
3BE8B2D0
BD400098
BC99459A
BCFD6652
BD2999D8
3C5C4C28
BB9DBC10
BCCC3130
3C4970E0
3D5FA1D0
BD2D60F3
BD2EA957
BD4D2B7A
3CAEEF08
BD280F29
3D5FA454
BC2FEC30
BD4841F6
3D91C076
BC1CD010
BCF35668
3A9D4C00
3CCAA80C
BD0B3EE1
3C852178
BD900EFE
3D010A6A
BD2FE93F
BD7FC662
3D9211D8
3D51646C
BD1A074E
BBDDB800
BD49C4C4
3D5B43E0
3CAB8864
BD5CFFAA
BC0D1BE0
3D435576
3CC1A374
3D97EE1A
3BC452D0
3D8570A8
3D81C1C4
BD90C85A
3C64BA80
3D1B9612
BD95E7BE
3D8E9224
3D8BF0CA
BC9BF9C8
3CD37D14
3D991FF0
3D8C972A
3D855CC2
BD0809D7
3B985270
3C8B233C
BD2B7F86
BD0982A3
BC8CDFCC
BCC85CA4
BCCE55C6
BD3BCC19
3CCFF25C
3D5C52E8
BD21D5EB
BC8B222C
3D482592
BD45BE08
3CBCA3D4
BC8E90DC
BBF0D0F0
3C81966C
3D51C2E0
BD90E21C
BCEF7EAC
BD8D453B
BD12CDF1
BD1F044E
3C406148
BC892DC6
BCD75D54
3C912D44
BCFBAE6E
3D51033C
3D9052F6
BBDD2DE0
3AC5E8C0
3BA86570
BC2CFDB0
BD759A1A
BCA154F8
BD9A2B0A
3CFE6D04
3CC7F228
BD62921C
BCA8DABE
BCBA2E32
3D82D3B4
3BAD2160
BD2DEEA9
3D213D70
3CE1B8F0
3B6E9A20
3D357BAC
3D15FD40
BCB22A4C
3D071FBA
BB8D9E70
3D980B64
BCB75E84
3C448C78
BCC4018A
BBDE0440
BD5BB0DA
3C7E0810
3D950854
BD123D0E
3D57DE14
BD9082BF
BB842F30
3C89F324
3BBB7100
BD48B2FC
BC2DF340
3D911B2E
3D94024C
BC922B74
3D73C1D4
BD7469FE
BB8D3FD0
BCADFE2C
BBC07980
BCD989DA
3D85D384
BD1C1225
3D6E94A0
BD3C7FB6
BD40D862
BD890CCD
BD0E3F74
3C0C41C0
BCC710A4
BBE0FF70
BBF48AD0
3C67A3F0
3D469B22
3C922714
BC4D4028
BC9DA79C
3D628E88
3D55D870
BD8D11D3
3C067498
3D3ECC1A
3D524914
3D639A94
BD6A0816
3D7D7AA0
3D823B38
BD5BECCD
3D34CC92
3CFE8CFC
3D707494
BCAC1980
BCC78310
BB9CD4B0
BBDA96F0
3CAA0694
3D3E3630
BD85D4E7
3D90B660
3D3AC5BA
3D78D3D4
3CEE24E4
3D10F69A
BD5405C4
BD5F665F
3C433C80
3D80BF86
3CEEB864
3CAF3188
3D8CBDBC
3B33FA00
3B0B3560
3CA18434
3D88D986
BD232781
3CCA0244
3BF55DF0
B9A46F00
3BD38B50
3D616080
BBF2A5E0
BBDCA660
BCCA3B5A
3D015408
BD962F80
BD316369
BD56E0EA
3D8B4DD8
3B371F20
BCBFCC4C
BD3FB928
3D389390
BD558D3E
3D18E840
BD05708C
3D5C8EB0
BD20F711
3D6F2930
3C0025D8
3D783798
BD7EB214
3D86D460
BD1A59A4
3BE98A80
3D45D92E
BD09F0C5
BD862AE7
3D7A968C
3D95F4DC
BD876914
BD5D8EC4
3D312EEC
3CC319E0
3D96D932
BC35C278
BD841AFC
BD28FA39
BD4B37BB
BD809DA7
3D9B48BA
3CAC5408
BCA25026
BCA33B58
3D38DCCE
BD76407A
BD70A340
3D52CE10
3CE80B64
BD8B140B
3CDE8670
3CE96284
3D21C684
3CC3240C
3CE844E4
BD3CF32A
BD40E8D9
3D9AF5C2
38C9DC00
3C205260
BD5FC1FE
3BFB7D80
3D889056
BD10E631
3D9A4806
3D4D4EDC
3C8F0A48
BD429B20
BBD6A190
BC3F8958
3CE85BC0
BD053535
3C32C7F0
BC944F18
BD89F0BE
BD2F37DF
3D6823F8
BCD3D182
3D8D80C2
3CEA5974
3D7B1140
3D711770
BD7C68F9
BD1C945A
3D5ED3A4
3D843D82
BC099D20
3D97AC36
3D2C822C
3D89CC9E
BD8D3AE9
3CFF24C8
BD200D72
BCA24694
BD595AA0
3B9504A0
3CCDF858
BD77BDEE
BC9CF686
BD6BF84D
BB1D6AE0
BCBBBD00
39CB1100
3C054B20
3BBF5210
BD5A8720
3D59B388
BD03B09E
BD47B603
BD8FC1D0
BB3D27C0
3CFD45D0
3D0D2C70
3CEA2954
3D3D31E8
3D234E3E
3C9081FC
BBB9D190
3D88197A
BCC9A256
3D3B7D38
3D0015B8
3D805A10
3D6E9EEC
BCD5D09C
BCCAD34C
3BD1E3A0
BD22AA10
BD61DA6E
BB9B5AC0
3D8AF92A
BC96C93E
BCBFD970
BD3758A7
3D6A361C
BD98F2E0
BD513422
BC6DBCC0
3C23B310
BD6D490C
BC762DD4
BCB25AB8
3D6E4C48
3B8151A0
3D7652B0
3D427F00
3D8527DC
3AC1B240
3C98DA20
BD77AFCD
BD04E689
BD0C4ED2
3CA7F1DC
3B72BA40
BA8939C0
BBF374A0
BD830F20
BD5FA416
3D1CBB0C
BD8DBCE8
BD031893
BD485651
BD94679E
BC800746
BD8E30FA
3CF751E0
BCB1B7CC
3D7E1980
3D6F9164
3CD54550
BD64F3FE
BA3F8700
BD6ED0E2
BCCA6DF0
BADD3440
BD9252DD
BD1B47AA
BA38A200
3D814294
3D70295C
3D8522CC
BD91E361
BD73ABB0
BD39B8C5
BD985445
BCE6FDAC
BC249880
3D3B34DE
BD55739A
3C155F28
BD933BBA
BBCE3360
BD929DFA
BD31452E
3D227DA6
3D4E3B74
BD55AA76
BB518BC0
3D974B36
3D5D8218
3D203C2E
3D019272
BD84FE17
BC8EF656
3D873900
3C3B0308
BD44BB4E
3D1D6844
3D3F41AA
3B8E2970
3D61B858
3CABB658
3D78D364
3C810BA4
3D263B12
BD4D045C
3D8C8ADA
3CD1B1A0
3D284F36
BB23D860
3D845D3A
BA332400
BCFCFFBE
BD54DDF9
3C5BEE80
3D9B3838
3D5836E8
3D3F3BC6
BD1C786B
3D52430C
BCD800FA
BD5F1254
3CAB7F0C
BD3E87C8
BD83902F
3D051E1E
BD80E0FA
3CE03940
3A057080
BCB8FE86
3C93D6B4
3D54996C
3CA5508C
BBB81AF0
BD011CC1
BBC2A4E0
3D5DCD30
38A2C400
BD72EBF0
BBBD8DF0
BC4A3540
BD1D53FC
BC3306C0
3D8758F8
3D6C08E4
3D0EFDE4
BD935594
3D0F036C
BB9B58A0
BD8B2ADE
3D49F73C
3D3AA6B4
BC75E020
3D7DC268
BD916AA9
BCC575C2
3C0DA030
3CF04FBC
BD3164B3
BD89DC80
3D3020D4
BD392D5A
BB2E2380
3D95C3BA
BCA93614
3BEA61C0
3CE9CE6C
BD96F52F
3D97161C
BD86D237
BD320584
3D7A6F04
3CEE7674
BD0CB6E1
3C9D8FF4
3D73071C
3D22E17E
3C8CACE0
3D82A3E4
3D4315E8
BC3656E0
BD16ACEA
BD107B83
3C5B1DF0
3CB60214
3D327884
BD694B5F
3D615E2C
BD873871
BD37086C
3CF95358
BC6AA350
BD5ADFB0
BD7AF7CA
BCC78152
BBD1FFC0
3D73D920
3C085F08
3D931188
3CC6B0F8
3C026630
BD7B7C56
3D1B2D4A
3D8A3D7C
3CC35E80
BD88E4B2
3D5C3954
3D47C204
BCB8270A
BCF63534
3CF15B18
BD4EB8F9
BD8C0ABC
BD72E6CA
BD1AD0DF
BC2BEFD0
3CF781E4
3D8D53C8
BD1FD3E9
BD8F5517
3D3AC8B6
3D5D5124
3C874C38
BD801954
3D5652B8
3BD73100
BD57238C
BCF6F58E
3CA6A54C
BD28C288
3CC9F61C
BD4D8410
3D43426A
BC7A15B4
3C99F350
3D3FCD76
3B6B2AA0
3B392780
BD024A25
3C316C70
3D102662
3D89E17C
3D6B0834
3C70EA00
3D0FBC64
BC488C20
3BE22CB0
BD3C2554
3D357DB8
BBDE8280
3D6D4214
BCDE73CA
3D2BE24E
BCB43160
BD79C7D1
3C205CF0
3BFEC5C0
BC17E308
BD59F8F5
BC834FD4
3CC20930
BD151D10
BD739754
3D55FA34
3CFDEC50
BD8D1D9E
3C135FB0
3CC984E8
3D1261F4
3D927376
BD1A93C4
BD74EE54
3D89E4BE
3CE44140
3CEC4024
3D3DB868
3D1E03D2
BD90A953
3D743468
3D0173FE
BD471DC8
3CE617B0
3CDF221C
BD193007
BD4C0A3E
3B8704E0
3D116FBA
3B1EAAE0
3D417068
3D6C54FC
BD802E77
BC0AE248
BD618794
3D10BF96
BB6ED340
BC97F2F4
BD7EBFC0
3D97ECAA
BD99A9A7
3CF5C060
BD31FFB0
3D25DDAE
BCC35008
3D351698
BD7D49EA
BCAFBDF8
3BAE3910
BCC51780
BC42AC48
BCA65612
BD2EDC7A
3D9B15C4
BC9E552C
3C0CF0D0
3BA611D0
3D1B58AE
BD8D80E2
BC7518F8
BD4DCDF2
BB372D20
3CDE6000
3AC02FC0
3D858DF0
3BC01100
BD79E87F
3B142B80
BD703D3E
3D404658
BD860225
BD86386C
3D757974
BD34E631
BCFBFDF4
3D5C2DE0
3BC7E050
BD978040
3D87987A
BCCE7E6A
BCA23512
BD0EC4FC
3D903BFC
BD5BB348
3CC975A4
BD811937
3D778560
BD0A26A5
3D352C20
3CBDE1E4
BC49D840
BCAE0D5E
BD927A1D
3C990558
3D6E518C
3CE1FC80
BCCA854A
BB1975A0
BCF8A0D8
3CBEB330
3D0D5592
BD87A348
3D9340DC
3D6B5688
3BCEF510
BD4E4ADB
3D2C70C6
3CE1BEF8
BD5E5682
BC044B50
BC61CE6C
3D3A6720
3D0A6D56
3C568C38
3C391EA8
BD4014BE
BB8C1300
BD6C0FF1
BD80D0B2
3D1B72E2
3D3C6AF0
BC2EA1A0
BB3AC120
BC84D60E
3D9A14F2
B9D1EC00
BD1042C6
BD136296
BCAD0BA6
BCB72C8A
3BE34FA0
BCB1EB1A
3D98F824
BD66256E
3D540440
3CB4AE54
BCB2A638
BCB998C2
3D07F7C8
BC74AD58
3C8E496C
3D094EEE
3C191030
3C40D6E0
BC072248
BD48AFC6
3B5829C0
3C5CD850
3C8745E8
3CC762A0
BCEE8546
3D2A7208
BB67D220
BCD5015E
BD23AF33
BC09EB48
3D86D64A
BAD2D600
BD9AF8BA
BC0F4230
3D5F7ED0
3D293EA8
BCD13064
BD0212DA
BCC03276
3D53EDDC
39300C00
BD4BB12F
3D2F1128
BD80CB3F
3BE69910
3D6C8224
BD8E755D
3D35DAAC
BD49BEFE
3C62C460
BCBC30B8
3CEE49E8
3D69FAAC
BD91F117
3D4976A4
3BD24B60
3D789274
3D2156F6
BCF5EBA4
BC3EC2A8
BCE81E4E
BD8DBD90
BD945923
BD897F33
BD4E1D3A
BD28C4CA
3CD6567C
3C9762C0
BD1A160A
3C938A2C
3D43FA62
BCE8B2A6
BD673A22
BCCE836C
3CEE9C2C
3C751AE0
BD74B77C
3D8ACA38
3CCB1120
3D1A3A46
BD3A9443
3C94B30C
BC842404
BD8C90C5
BD05E9CF
BD919D37
3CBD281C
3D6A93F0
3D8FBEE8
3BBAB150
BC67C3C4
BD708AB2
3C685638
3D8FC9DA
BBD3AA00
BC774C44
3BBE86F0
3D0F001E
3C6D5EE0
3D96DE38
BCD30116
BD3F9B71
3C039DB0
BD885DA6
BCCBBAF6
3D0723A8
BD29E929
BD077196
3D9AF6A2
3D8C8E50
BCD303F8
BD2A8E28
BD950CE5
3D563CD8
3CC31C00
BD431EB2
BD11AFA0
3D308D46
BD6731FC
BCD9BFDC
3CEF6A20
3D91D168
3AB67800
BD980C96
3D284A86
3D5B9204
BD1D4A18
3D255362
BD0B53A3
3D8FED66
3D6AC9A0
3D38ECDE
BD3B1C48
3D7A6B60
BCBA019C
3CCCF5CC
3CE73734
BD4161D8
BD9A470D
BD17CE91
3D849DCC
3D138264
BC9E57E8
3CBBC504
BD06BB64
3D5246F8
BC010880
BD0F25E7
BD3C2254
3D6463D4
3D8903E0
3D875BE6
BD20AA16
BCCCEDFA
3D94D136
3C833D44
BB455D40
3D929240
BB87A6B0
BC847540
3D988F50
BB8E2F80
BD64D36D
3C57EB48
3D36FBE8
BC159958
BB7DD520
3D011D7E
3C2B7510
BD8B01BF
BCA0A45E
3D94B5DC
3B243340
BD8F4E52
BB727C00
BCCA9DCA
BD9253F7
BD7E90C5
BD0F06BE
3CCB440C
BD52BCC8
BD554E24
BD2E01A6
3C311AE0
3B6AF000
3D5F71A0
3D698964
BD3C4FBA
3D7EDA98
3D4D95D0
3D50CE54
3D9B698C
BD71D740
3C3C33D8
BC812E5C
3D8BC12C
3D559FA0
BB872B50
BD751082
BD7AD372
3D1A17BA
BD38B73A
3D2632D8
3B88F400
BD78F302
BC83B832
BD8105E9
3BC891C0
3D4E63E8
3D488122
3CEF2038
3C40D1A0
BD102D17
BC8BBC8C
BABE2A00
BD16D34F
BD921EAA
3D0BD3F6
BD6691CC
BCCC610A
BD424B0C
BD6D10C9
3D35A42C
3D651440
BD4F39B8
BBFF4360
BA3CF300
3CB219E4
BC0F6A58
BCC55C20
3D8917FA
BCF0EAA6
3C759440
BCD20554
3D8FBCF4
BD7B6E0E
3D86AC36
BC3EE378
3CE2361C
BCABEDB8
3D8B4340
3D8097AE
3D7177BC
BD991D20
BCBF3DC4
3D584984
BD92B8EE
3D5AA048
BD8D3AA7
BD1C4675
3D96394C
BCD82C0A
BD0CC3F6
BD3B6ECE
BD42F513
BD5A1409
3C9F15C0
3D25F928
BD8D30E4
3D93B026
BD925793
BD3184C6
3D7EB9DC
3D0656A2
BBB1C1D0
3D537210
BD271CFF
3D945A02
BD5713F0
3D7CFA1C
BD1FDE95
BBA33B60
B95CE600
BD9370DB
3D8DE540
BD57DA41
BC0D2930
3D87F8BC
BCE8CC5C
3C2646F8
3D371092
BC40F128
3D2BFD9C
3C92C290
BD0A4524
BC676E28
3CBDC1B0
3D859B3C
3D5D2168
BCE80B46
3CA767D0
BD194E94
BB811CF0
3C80234C
BD6C4EF2
3A2E8700
3ABF3080
3D25019A
3BB90140
3CD12D20
BD1E1F95
BCABF4B4
BC8D3E1A
3D6F3C58
3C837F30
3D478C5E
3D60AD28
3D6DD410
3D740A44
3D8EEFB6
3D9452E8
BB643D20
BBD7D1B0
BD31EC6A
3B898F10
3B301120
BD8A88E9
BC232CC0
BD3B0ACA
BBB0F9C0
BCB16B14
3D24A19C
3D93EF38
3C966218
BD227382
BCBDC2E8
3D05A2E8
BB3EB660
BC095348
BCCF380C
BCDED6CC
3D12AC86
3D2F9318
BD926CFC
BCA3BAF4
3C7DC9A0
3D9930B8
BC78ED68
BD79BB88
3D3C9C94
3CE14758
3D0E53C0
BD40CF36
BD83BFD4
BCE56D50
BD28B511
BD641E5E
3D0EEF24
3CCB88AC
BC6DE5B0
3C7B3288
3C887C14
BBE41B70
BD78F828
BB6D8FC0
3CE848FC
3D45EF70
BD89F705
BD58DAC6
3D2CB67C
3D83961E
BD490FA6
3C8A2418
BC0D9128
3D838A9A
3D3B8836
3D257468
BCD51DEE
3D622C40
BC8998CC
BD951024
3D84218C
3CEE3CE4
3CA54D48
3D8DE15A
BD406CE4
BCC0EB7C
BA8A3A40
BD8BF992
3C7187B0
BCBFCF9A
BCC73CEC
BD0E2191
BC9A4A94
BD82B651
BCD188EA
3D50ED44
BCA7CE2A
3CC80898
3D60C500
3D53AF90
3D33CB6E
3D788560
3CE0F0F0
3D5616EC
3CD80FF0
3D95AB96
BCC7E600
3D885A94
3D1A864E
3D1F80C6
BD54FC03
BD809370
BD94CA1C
3C80EB18
B9FABD00
BD832728
3CF6D8B0
3D4B2ED4
3C7A33F0
BD314D67
BD975112
BD6EF09E
BC5183B8
BC992168
BD5FADFA
BC991510
3D9708CC
3D6DF8A4
3C390498
BD4DB9E0
BD144B38
BD85FA94
BCA4807A
3D3ADFDC
BC1BA358
3AD50000
3C92A510
3D8CD1FE
3D892BC4
BD3A4589
BCEA681C
3CA95868
3D7AA900
3D459A0C
3D994CE2
3D4923E0
BCFC2BE8
3D165896
3D50C9CC
3C2B9470
BD20A7B6
BCB0C97C
BD149FB8
3D484702
BD285068
3C30CC68
3D2C4C74
BD86AFA2
3D418F4E
3CC55524
3A7C0680
BD32CDB3
BBFDDC40
3D933732
3D5C1E74
3D87A938
3B758F20
3D59364C
3CE3B0B4
BD71D08C
3BE83130
3D80BF94
BC8091C6
3D785D90
BCCD31CE
BD8511AE
BC68D60C
BD32EFAB
BD845B71
BD76033E
3BFAA000
3C3EB008
3CE233A4
3CC93808
BD41AFC2
3D791254
BC89CB62
3D2317C8
3D5D19A0
BD3810E6
BCDED82A
3CE1D4E4
3D5E0144
BD51314E
BCA54198
BD5B1C92
BD1A51DF
3D2038FC
3D2FAB4A
BD4F817A
BC84BF7E
3D119646
BD041785
3D99D9D0
BC67FC6C
BD32D53D
3D87BAA6
3D5BDADC
3C509278
BD1640E7
BD853EA0
BC3C92F0
3D5693F4
BC101C78
BAC5EE40
3BF2A720
BC201490
BB12D180
3C71EDA0
BB185820
BD0A8C71
BD596988
BD082322
BCD6AFF6
3BFEF850
3D8EC3D6
3D66B478
BD97F445
3D2EC2C4
BD6225F8
3CD1815C
BD4126F1
3D8E142C
3D8A9426
BD570D98
BCEEED72
BD48A325
BC885EE8
BD53FE79
3D062278
BC658528
3D12BC48
3C6410C0
3C95ECF0
3D3498CA
3D5CB008
3CA8E144
BD8DB0EF
BCC0C552
3D9063A4
BD360B0E
3D1DC396
3D1BC7E0
3D016F18
BC3A0650
3D806848
BD439671
BD59083C
3CE675F0
3CA440D4
3D87D372
3C843860
BD8231EF
3D8F1B3E
3D811698
BCF221CC
BD7FAC55
3C939F54
3D3C704C
3C355E98
BCA5EB02
3D38E3EC
3C8BF7B8
3D5983A8
BD8C6628
BD051739
BC83D760
BD129D59
BD0A6BF9
BD8F2756
3B990430
BD969A55
BD4237C6
3D0A9D3A
3C2AD330
BCB31434
3D2C076E
BCE81B44
3D7CF794
BD4B4ADA
BD48CA21
3D98BB52
3CA44084
3D73A134
BD7D2C72
3D94BB0E
BC7AE87C
3D430506
BD830C8B
BD0DFFD8
3CFB6A30
3D5F7604
3D11720C
3D09B238
BC983AF4
3C744F60
3C1D3350
BD029E0F
BD90F748
3B91B520
BD91748B
BC70550C
BD049E6F
3BEDB4F0
3D1D93AC
BD4D521F
BA1BAF80
BC1A1C18
BD56E5F2
3D41A294
3C6CFAC0
3BB58780
3CE8FFF8
3D09DC44
BD876E00
BAD102C0
3B1F75C0
39923E00
3D38CC22
3BC08250
3CD3BAB8
BC845846
3D2241E0
BD630AAB
3D02DD50
BD84438E
BC886524
3D95EE42
3D2D8D22
BB689A00
3CEF1D24
BCC0AEBA
BD7ED420
BD627724
BBC99EC0
3D6EF654
3D86CFE6
BCCC5006
3D80B7E0
3D7AD8B0
BC60B8A8
3C468750
3CCC57EC
BD854931
BD15AFDE
BD6711F9
BD8C1DE3
3D225CA6
3D541310
3C2EB330
BD48A24A
3D810856
BD6D10E1
3D7B75C4
BCF67BC4
3C5FACE8
BD5BF38A
BD459C4E
3B631460
BD90BD74
3BF52410
BD96E8EB
3C55B480
BC5BA7C8
3D2CF8B2
B88BC400
3CB34F68
3D84FCDE
BD9659CA
3D1FF6D4
BD929F0F
BCECBA94
3CE34F84
BD52B2AE
BD3196DA
3BC7C460
3D15C574
3C406FE0
BCC72FC8
BB64A6A0
BD16CAD7
BCD91C4A
3D2716A8
BD3BB47A
BD8D586D
3C0332E8
BD256D30
BBB1C8D0
BA4DA780
3BA81080
BC4EA730
BC19CFD8
3D0B90A0
BD64BBD8
BCB59D78
3B80ECA0
BBB633A0
BD1DF322
BD50DB3A
3D229EE0
3D6914C8
3CA10F0C
3D461836
BC7301CC
BD10A933
BCEEE0EA
3D149EF0
3C7DEF28
3D959A56
3D353D76
3CEC1D88
3D113282
3D95BCC8
BC8AB13A
3C844140
3D1777AC
BD2BA422
BC3C2F10
3C56F310
BD5CB9F0
BCDD484C
BD8DFEB1
3C19E1A0
3D1BC7F8
BCDB6D80
BAE573C0
BC809258
BD5B81F3
3D4197A8
BC95CB22
3C096AB0
3CF85398
BBD80EC0
BD9753FF
BCF7EAEE
BD3CB8C6
3C8F9030
3B182080
3D741350
BC7C8FC8
BC0574C0
BD8775DC
3D596384
3D450D6E
3D3BEF3E
3C422020
3BB6FBE0
3D7C440C
BD4C1C3E
3D82860E
BC6138F4
BD8558FB
BD99AE44
BC0DFA80
3CBDDC64
3CC21DDC
BD9447B0
3C930FD0
3D4B748C
3D80F0B4
3D016912
3C9DD260
BD5A6F5A
BC9406C8
BD65C443
BD62EB9A
3D3B6806
BD87483D
3D3562DA
BB954C50
BD994F0E
BD33C5CE
387BA000
BC790F70
BD4CA73E
3AB267C0
3D633684
BD1016F8
3D86CD5C
3C1762B0
BC712CB0
3D39E962
3C509108
3C90C1FC
3D4EEF88
BC9A9270
3CF8CB74
BB4EEE20
BD676F83
3D42ADE2
3C83A1C0
3C2AD8A8
3D5AC004
BD09312C
BC56B528
3C86EFAC
3D932FC8
BC24DDF0
3D2500C8
3C8D0188
BCE195BA
3D1C7AA4
BD6B6D30
BC54D5B8
BBBB2470
3D22B134
3D058234
BA601B80
3D5EA6C8
BD89331C
3D2A6E4A
BCA3DFB6
BC92D5FA
3D953B2E
3D769C78
BC79D81C
3CD49BDC
BCCE2B20
3D9B3A6E
BC956EF6
BBA79BD0
3C6ABD48
3D8BDC10
BCB83804
3CB164D0
BC176BF0
3B4DAF60
BD6F4F8F
3CA4AA10
3CAAD79C
BD6DC4E0
3D5FE030
3D87FB3A
BD4F7F3C
3D836DFA
BC5DF2C8
3D9AAB10
BD40A805
BD2E2276
3D80AEC4
3D5D2394
3BF8E950
3D80A9BA
3BEF26D0
3CBB3A40
3CFD0364
BD801456
BD4967AA
3D7ACF1C
3CF66694
BD912CD0
BD3AECC5
BD31A7C5
BBA5DE00
BCB9DB54
BD7B273A
BD58E57C
3D5AE81C
3D8A4392
BD1A2CD8
BD4C6F90
3D95C064
3D954F12
BD25F8A5
3D620380
BD8DA3ED
BCD3A38E
BD3A3392
BC92E294
3D635E38
3D6B8FA8
3D806B56
3D56D4D4
BD60A7B8
3D09544E
BC51F150
BA027300
3D6E9684
BBDC0360
BD54FA74
3D6A5F04
BD0932D8
BD3BAAEC
3D9A4DC6
BD8AED99
BC95056C
BCB9A694
3CAAF1D8
BCB9365A
BD5D1232
BD6C85A8
BBF71DF0
3D1EEE94
3D8E5E8E
BD593850
BD1D7BF0
3CAC8E48
BB3D9880
BD0B5FA3
3D6996BC
3BEE0290
BC1B3818
BC4E9A38
3BF82220
3CF39830
BD2F6FC6
3D452138
BD420698
BD7C9453
3D51EC00
3C713008
BD7DD974
3C41CA50
3CC91C20
BBD54D20
3CB3A014
3C957288
BD851C1A
BD3AFA1E
3B58D580
BD998CF8
BD4CE850
3D822602
BD513F51
BD945A53
3D81317E
3CC17038
BD028C22
BCFA8350
3D8CA5F6
3BA0EC40
3D799F30
3C833E70
3C61E8A0
3D38B9D4
3D3B8190
3D749260
BD786706
3D8E525A
3D055C0A
3D4FE0E4
3C8E3EC0
3D2AC6B4
3D72DDD8
BD95DABC
BCD483DA
BCEA73C4
3D182492
3D3D13DE
3D19964E
BCB40F9E
BADEA440
3D88D73C
3C8D30EC
BD981A03
BCF54BDE
BD380C05
3D93DFD8
BD8D5574
3CC308C0
BD83A9F9
BD191651
BD609036
3C1CB280
3C3F19B0
BD73DFD4
3D6340F4
3D969FA6
3D5870C4
BD9379F8
BCE849F0
BCF722E8
BCD8A45A
BBE54F90
BB9B5350
3CCA9F58
3CD99030
BD1614BC
BD5746D8
BD1192DC
3CBA6F4C
BD8CDE52
3CF43FD0
BCF74BCE
3D8DC064
BD5C0F00
BD370334
3D1BF7E6
BD032A98
3D8F7FE0
BD308538
3D367696
3D5A010C
BD5939A5
3D93AB68
3D950176
3CBEED74
BD551536
BC1459F8
3D430B50
BCBF5878
BD412CD4
BD99428B
BCA92E54
3D5D2240
BD5EA842
BD172F01
BD0C5586
3D59B91C
3D77147C
3D6D27D8
BD1E1A14
BD4D3C44
BD950AC2
BCC1A770
BD6607F5
BD893A20
BD955D61
BD2CCC22
BBF9BF10
BD338E6F
BD002DEA
BB9EA650
BD8C1AF6
BC9DD542
3D902B62
3D3B1ECA
3D95A25C
3C95E24C
3D3D2092
3D88F2CA
BD6060B8
3C2BAE08
BBA2FE40
3BAE3060
BD105664
3D0A3A16
3D4A1DC8
3D2F19F2
BD0D5103
BD3695A8
3CF46CC8
BC80E95A
BD309D08
BD43C0B6
3D7F9B9C
3CCF41A8
3D878C4E
3D95DB10
3D59FFB4
3C116598
BD88521C
BD1FCE59
3C3E74B8
BCBB43A0
3CABBFCC
BD52FB72
BBC467A0
BD008F5D
BD64C60F
BD28B842
BB83F3D0
BC3D7EC8
BD3177FE
BB693B00
BD1DA1DC
3CCC8960
3CFF0150
3CC1B3D0
3D3BE2B2
3D2E73EC
BD5CA2C0
3B7D1C20
BD9B523B
3C69A198
3D92B6D2
3D5432E0
3D3073D8
BC15BE08
3CAD5A60
BD552F7E
3D5F17D0
3B6C0460
BC3C3C90
3D1226E6
BD5F6FA8
3D3DC458
BD03902A
3D207EC0
BCCB5E4C
BCA16382
BBF958B0
BAC04000
3D8655CA
BC459D00
3CCB0C88
BD91F410
3D32975E
3D879F10
3D66B52C
BD6DD69C
3CDB5A54
3C7E43F0
3B771500
BCD2B1D4
3C9EF8B4
3C2E2BF8
BD8B7D36
3C30EE98
3CD2AA3C
BC9AE53A
3D6F3BA8
3CE02258
3CC85D40
3D8EB486
BD972698
BD89B9D6
3D6F77C8
BD1B0FDB
BCCA1868
3C580CB8
BD9065DE
BC86F8EE
3D7D38C8
BD3E20A7
BD0A7ED9
BD01D39E
3D250AD4
3D73513C
BC9758F4
BC5CA898
3CE00B7C
3D2F96F8
BB201160
BD08B44E
BBC11ED0
BD92EA96
BD97AC81
3D7FB480
BCC4F58C
3D48FC64
3D20F07E
BD8855D5
3D6B08C0
BD88AB4B
3D43D59E
3CB6FD1C
3CEBDF2C
BD4028AA
BD49BD9B
BD8DA1A8
3D446A7E
BD14EAF9
3CD0A008
BD35F57C
3D982E3C
BCB011A2
3D2FCB9A
3D484A4C
BC7A1C2C
BD5E9AA4
BD6FADEF
3D354EB4
3D6A6260
BD93A87C
3D683AD0
3D8AD374
3D56F20C
BCC4F3B0
3D1D5AC8
3D1E2EC6
3B9409D0
BD338A42
3D275556
3D902656
BCE20E44
BC57A628
BD944965
3D33FD98
3D1810C4
BD4C5D51
3C9AABF4
BCAFF51E
BC971B16
BC98E222
BD890BAC
3D2FDEB0
3D3036CC
BD087763
3D48C616
3CCB7734
3C2CBB48
BAE7F880
3BB70870
BC2EB220
3CFCBA54
3D1F0D9C
3C3E2118
3D8EF1CA
3CFCDB8C
BD3BA1B2
3C536590
3D575384
BC82E292
3D202060
3C7569F0
BCE14C48
3D4C0BF8
3CFA12F8
3CEFE8F0
BC25FA60
BC4429A8
BD9B201C
3D94FA06
3D7E4054
BC939DBC
3D371C4A
3D971284
BD598F52
3CE98D78
3D1DCA22
3D3007EE
3C7A2B80
BD8A73F0
BD90BDB5
BC944488
3D36538E
3D66E790
BBE82140
BD642C31
BD8B1224
BCDD96F2
3D8C57EC
BC662FFC
3BB76F20
3C41C318
BD4A4E2A
3D6ADC30
BCCCEB0C
3C2D50A0
3D39C60C
BD85C6F2
BD5FECFC
BD1E6FE8
BD606D8E
3D7CE350
BCBF4A30
3B3834C0
3CEAFDD0
3BBBEC60
BD228177
BC7FF6D8
3C95A2EC
3D524BC0
BD40E784
BD4FDA00
BC5EF4CC
3D24417C
3D867A9C
3CC99F08
3D4EB5B4
3D8E5764
3D30CF1C
3D08CD28
BC8A7556
BD26AC73
3D8D0538
3C1CD070
3D305CA4
3D4E8A18
BCECD8D8
BD310031
3D5C84FC
BD9904E0
BBFF68C0
3CF489E8
BD35559E
3D8D0E9C
BD66C19C
3CB5EC50
3D691344
BD5EE9AC
3C9094DC
BD6B9F87
3D95D64C
3C217A88
BC2D09D0
3D83A702
BCCC7EB2
BCC15F66
3BEE1DC0
3D93C922
3D5BFC74
BCE01234
3C7D5D50
BC90BF48
BD99E385
BD9A7F0C
3D17C66C
BD97D906
3D8F679A
BD99B71D
3D35A458
3D8B95A8
BD4A2182
3CA06240
3C1862F0
3D027D70
3D6DFCB0
BD879FBB
BCB4E000
3CED6F00
BD85C3B0
3CA4F160
BD3BEAD7
BD0ED93A
BD2D7297
BD62AC5A
3BA966F0
3D66B698
3D34B600
3D3F6D2A
3D033B40
BC7179B4
3D539928
BCB90EE6
BD52484E
BD48D0E4
BD1288CD
BBFFCF70
BCA03D26
BC9FCAB8
BCF1A1B4
BD985F74
3B56BC40
3CD8013C
BD24A268
BD70D98A
BCC2E7C8
BD3A7F7D
BD826B4F
3D8F9A68
3CBC015C
BD83C349
3CE1E46C
BD845C8B
BD0A0AA2
BCD90A8E
3C355F58
3D87DAEC
BD6BB16F
BD5FB523
BD0AD6CD
BD23CB30
BD74A8CE
3CEC74A0
3D7AB8B4
3D8209E6
BC33CC78
BCD49DA4
3D625614
3D1CD3E8
BD1D9E71
BD6F868D
BC3F3F60
BD6A5948
3C9ACC20
3C694F58
3D2EF60E
BD86B1F8
BD824BE5
3D8EDAF6
BD9B2E4E
BD5FADE7
3D6CC280
BC9C07FC
3D4008D2
3B536BC0
BCDD5C9E
BD7421F3
3C9BD364
BD54BC1E
BC0D48B0
3D87ACA0
3D6BC76C
3C4000D0
3D7D3450
BC989EEA
3D267FCA
3D9118D8
3D8E77DC
BD9A90BC
3D99860A
3CA6EADC
3CB0BCC4
BD80C9FC
BD55E170
3D508DAC
3CA92994
3D52D9E0
BD830A0A
BD9140C7
3D6DE82C
3D00F322
BC6E8BA8
BC5B4C90
3D3C0020
BD64ABE9
BCE7437A
BD75AEE4
3C88C698
3CE4DF58
3D1F601E
BD70BCD9
3D1424DC
BD01C5A9
BD9B413F
BD96B408
3CB17E74
3AF29100
3D99846C
3CE800F4
38E35400
3D5A2284
39E4AC00
3D2730EA
BC1C9140
3D1929A6
BC7B4D34
3C92ED98
BD90B445
3D762DF8
BD5E13D6
BC5E14E0
3CF8AD9C
3B746F20
BD8DD71A
BCBAD494
BCC641A0
BD53B2B0
3B153CA0
BC90B256
BCFDBE6E
BD06755C
3D89F790
3D835496
3C373FC0
BD2E7A58
BD90652F
3D3B2C06
3C0D67E8
3D1C4FC8
BCA25358
3CB5B364
BB4FA6C0
3D322F02
3CA99A60
3D8C5D32
BD838D21
3D082AD2
3BCBD870
3D648058
BD03A5A0
BC4995A8
BD4DCD9B
3D8AD39C
3D84BA54
3D150802
BD4DACB8
BCD63D30
3B316480
3D44A0EA
3C4B2EF8
BD925419
BD8C38C4
BCD04390
3D740B60
3D88E3AE
3BC9FBE0
BD02FCDF
BD038D60
BBEB1BB0
3CA5B288
3D61E30C
3D1C1728
BD4ED597
3D63852C
BD757CBE
BD89B7FF
BD2A55DA
3D6DF3C8
3CD04E28
3D7059B8
3CE86064
3D844CC6
3CD1A60C
3D249EC2
3CB04444
BC727D68
3B896D60
3CD81948
BB1EDD40
BD938DB8
3B85A3E0
3ABB80C0
3D7ACFC8
3D6E3A08
3CA19F68
BD206293
BCD33E3A
BD76CE10
3D458F2A
3D9798D2
3CE6B394
BD374E70
3CB96F84
3CEE9D78
3D8432C0
BCE8D2D0
BC0C84E0
3D862F92
3D930E58
3D9B61A4
BD5583E6
3D0F60E6
BCB806C2
BCAD45C2
BC57A068
3D2179C4
3D3D5A64
BD0810CF
BD8EEB83
3CF8E2BC
3D519A08
3CDE1A04
3D11FC44
BD0EBCB5
BC6870B8
3D4063FC
3D38B08A
3D6F9814
3C3D8720
BD4AE9BE
3CCE3B9C
3D08FA42
BD8443E8
BD4587B4
BD72575E
BCC36D1E
BBC23590
BD0FD5CC
BC07F7B8
3D91B784
3D9546A8
BD87FC24
3D00C718
B95FB600
BCCB6CA6
3CBF1E18
3985DD00
BD155AD1
3D193F78
BD1A6C97
3CFC8244
BCDDB810
3C6527C0
3CCBFD20
BD7550C4
BD94AD8D
3B272560
BA660200
BCE84862
3C4314E0
3C88B94C
BD88DE6E
3D46EEFE
BD1509D9
BD8DD480
3C0394F0
3C40EDE0
BD388526
BD2E7131
BC268258
3CD18060
BCC27E64
BD2766C9
BD8F3790
3D09AC3E
BCFF8EE6
3B183AE0
BC863D2C
3C99F700
BCBF2012
BCF01112
BCAD4CD2
3C620298
BD1A3BF6
BBA63110
3D87C88E
3D046BCA
3D73DC3C
BD223887
BD7E72DD
BD96028B
3C217DB8
BC36B588
BB25BFC0
3D73D24C
BC47F050
3D5BEDE8
BC8C9840
3C579AA0
3D1923E0
3C151DC8
3D1020A2
3D414E40
BD92E65C
3D930328
3B07B900
BD6068E3
3D46D556
BD884DB0
3D28A6B2
BCE4B61C
BC80C64C
38D8A000
BD070387
BD7FD081
BD2A6F82
BD802617
3D9A27AC
BD888278
3D01AAA4
BD3128CF
BD053A90
3A4C9880
3D113248
3CC856C0
3D5CA4D8
3BE94C40
BCCD63A2
3D5D85A8
3A31F900
3D4CA9A8
BC8EA7B0
3D12FFA8
BD12BC21
BD6DD212
BD49084C
BBE41E10
BD03BFDE
BCAF2716
BBD4F690
BD925054
3C78D2D0
BD3D9A05
3D9098DC
3D3C08E6
3CB65518
BB134400
3D8D79F8
BD09DC52
BD81F4A8
BCCDF580
3C9E1EE8
BCF20988
BD9A261D
3B41FD40
3D4C3138
BD3CB477
BD476312
3D81BE68
BC275E78
3C9DF7F0
3B27DFE0
BD31030A
BCA0D7AE
BB896F00
3D94F8F2
3CA43534
BD0E8B5A
BD22E404
3AFEB780
BD0B6414
3C3AEFB8
3D3A5890
BD79D2DA
3D93B326
BD736D98
3D23C716
BC32CCE0
BD1009B2
BC664AA4
3D5BFCA4
BBBEC140
3D76C7E0
BD51F46E
BC39A700
BD31D451
3D745348
3C992AC0
BD82F420
3D558128
3CF51A14
3D24FEB6
BD0F3E44
3B985640
3D4D4D58
BD31B3FF
3D825086
BD3BDCE2
3D1571A0
BCDE61DE
BD5302A0
3D909F88
3D6FA1E4
BCAA8528
BC4E9E88
BD953B94
BC307C80
3D8D374C
3C5FDF90
BB88BE60
3D8030AE
BCD7FA4A
BD3E41E6
3C0F28A8
BCDF3240
BC1C6760
BCE8E8FE
3CA397F8
3D7E68D8
BCDE92B4
BB91ACC0
BD112B85
BD0DB13A
BC88E220
BD1974CE
3C1D3E90
3D993EA2
3ABFEE00
BD93380D
BD3AC75C
3C491DE0
BD35B084
BD1C22FC
3D6FACE0
3D599D3C
3D6DF520
3CF684D8
BCA127A8
3C706468
3D1D98F4
BCC252B8
3D51442C
BD0A1478
BC324B28
BD7AB40F
BC272718
3CABBE64
BCA2831E
3D85511A
3D779C8C
BCE8D988
3A8DB300
BD05DC67
3D2C1CE2
BCEEFDF6
3D1E0F72
BCEBAE6A
3CFE070C
BD62CCB5
BD69D608
BD00B60B
3D36835E
3CF1B788
BD8B1379
BD4A3846
3CFEA1A8
3CAFAE34
3CF7D69C
3D866CAE
3CB1C300
3D8B138C
BD5CE072
3D91AFB6
BD8D9CFF
BD8FF353
3D7153B8
BD5F4D92
3C431DA8
3D6EBFD8
3D6D3FE0
BC56DEF0
BCB8328C
3C971A5C
3BFB98E0
3B1F29E0
3C5D19B0
3D31FF1A
3A631B80
BBCD6080
3CCB8148
BD8EBD72
BD57B6BF
3D03D95A
3B8A0060
3D0B524A
3D50BDF8
3D1E1FAE
BBFA0A60
3CAD7844
BB8BFDF0
3D7E3830
BCA8ECA0
BD997E9D
BCEEA9BA
3D0C586E
BD95D674
BD8E3193
3CB61BF0
BD7FC5AE
3D8994EE
3D82A36C
BB504DE0
3D68DE58
3D35A9EE
3D87F2E4
BCD4FC6E
3D538AF8
3C3F8798
BD121175
3BBC3370
3D0CA1BA
BD84DAD9
3B4D94A0
BD6FF8B2
BD048CA9
3D7A7A60
BCAE7A70
3D28D1B4
3CC99600
BD422B8C
BD86BEBE
BCF6E2EA
BD95CA6C
3D711128
3CE44B78
3BB4ACC0
BBA27ED0
BC6B3DBC
BD57B8FC
BD7F9C88
3D92D3EA
BCCE3C5E
BD0DAF85
3C4AAAC0
BD840766
BD2458FA
BCBB618E
3D22EFAE
3D768CFC
BCC17202
BD337FB3
BD00E0CF
BD1C09A3
BD9A81ED
BD4DA9ED
3C708A38
BC1C8070
BCC52032
3C0720B0
BC7B3C80
BCA26F1A
3D8EA07C
3D62CFDC
3D976728
BC559A98
3CDBC81C
BCA9F856
3D6FE1B8
BC16D990
BBCC39F0
BD16DBB8
BCE6BB2C
3BAF3CD0
BD512F7A
3CB9C574
3D8F8EDA
BCD6F3AC
BD2CA90F
3D5873F0
3D8EB0A4
BD36E7E0
BCAE38BC
3D9ABAB8
BB8517F0
BD997269
3D1AF6F2
3B6DF280
3D98A2D0
BD984592
3CE3A9E0
3D8CF0C2
BD6EFE70
BD83F1A5
3D5C6C4C
BCB2F270
3D20CA98
BD3158A9
3D4A6180
BBB289E0
BC444E08
3D97B16C
3D6D8C6C
3D1986C4
3D368B54
3CC7FF7C
3B6B8880
BCF308E4
BCB5926C
BD93277E
BD34F22C
BD50A304
BD805EE3
3D618244
3D0FAF28
3CD30DBC
3D2E29A8
BC041000
3D4D3D3C
BD8CAC22
3D6A898C
BD8FFF4C
3B8971C0
BD0D6492
BD0670EF
3D9A81CA
3C2900C0
BD624A68
BC41BBF0
BD1CD51A
3D27BE54
BD829615
3D2D6044
3D122E0A
3C1A0428
3D582FC8
BCABFEF4
3B0838A0
3C6165C0
3D7368DC
3D29BD1C
3D91C9DE
BD856842
3D6DB7C0
3D902544
BC623A34
3C9F0814
BD4C550A
3A116480
BD79BF54
3D954D9E
BD240A7A
3C0933D8
3D210126
BD304959
BD5C92D2
3D4EC8FC
3D4BC91C
3C3E8630
BC968DD8
BBAB3EE0
BD113684
BD902DD0
BD63876C
3D9643C2
BD846503
3D99DFE2
BD07D644
3D8F6B1C
3CD9D31C
BD918A07
BD25C7EB
BD688EDA
BC9B66EC
3D36C896
3CA28C28
BC3BF728
3D1A0F48
BCCCF214
3D1EBEC0
3D88120E
BD1C2FCE
3D29FB6E
BD2BBC14
3D28DE7C
3C34C130
3D0BCA6A
BC509098
BD356A9E
3CD2C7D0
BCE027F6
3B0DC9A0
3CF31328
BCEED840
3D7AF584
3D398A74
BD965B32
3D96B814
BD907E99
3D4877B8
3C86345C
3C502A20
3CE21CE4
BD842030
BD82937E
3D1D5414
3D54C960
BD97A9AC
BB92CE50
BCAF671E
3BA5C080
3BFFFB80
BD4FF418
3CE471A4
BD7DF1FC
3D2665DA
3CFB1CB4
3CC4D720
BC61B9EC
3CAFA0CC
BD75318C
BC948646
BD4CA7E3
BD77CF70
3D7C6EF4
BD3A2DB9
3D2EDB6A
BD998A6F
3BE3BE30
BD47A680
3D95410E
3D74F008
3D88F25E
3D8F49FC
3D6A38D0
3D701A58
3D238360
BD8F77F4
3D70B2F0
BD5C74F4
BD57B19A
BD8964E1
BB8BDF10
3B531FC0
BD543864
BD9B5779
BD7BB901
3D443DCA
3D2141F6
BCA61172
BD3A4E84
BD778805
3D4D6324
3D6B8698
BD84AF73
3D5A5540
3C443800
3CF1E18C
BD1E0EDB
BD91D639
BB465280
BD7BF7E0
BD21F4E9
BD8FF3A3
BD39BD54
BCA33FB6
3D8D2EDA
BD1C0F94
3CB91104
3D5A72D8
3D819EA6
3D23700A
BD0AAD41
3CA5E974
3D7A31F8
BC91C5B6
3D9A39DC
3D1D68B8
BD1BBB98
BD3B78B3
BD7DBB4C
BBFD0150
3D976362
BD25DD65
BC1E1070
BD57054C
3D1FC056
3C96B770
BA6C9B00
BD0AB92E
BD3535E8
3D2FFB4A
3D83CB34
BCE681A4
3D1C6192
BCBF4C16
BD7B1AB6
BD20FA8F
BD0F8E8D
BCA5B2FE
3D8038A4
BCD1CB44
BC13EA00
BD128916
BD489EA0
3D676218
3C0342C8
BCA84040
BD3EEEA4
BD8CB9B0
3C976984
3CAB13C4
3D85F994
BD8E9687
BD45B568
3D837686
BD36553A
3C8F1128
3C9E9220
BD331968
3CB3A1C8
3B80A3B0
3D060938
BD60E928
BC2A6B98
3CED85D4
BD5769F4
3C060EA8
3D68B164
3D805C10
3C683050
3D1D3014
BCE7B670
3BC65770
BBB6EC60
BCB3880A
BD4568E7
3D8AB20C
3D3C77AE
3D1B4D84
3D76112C
3D47CF8E
3CB09118
BD8DC69A
3B56EAC0
3C261460
BBAEB6D0
3C8B5DE8
BD30D247
BD0E3599
3D92B974
BD73EE8C
3AAAE640
3D6DCFE8
39FB6000
BD98057E
3D83D096
3D65C58C
BB7DC500
3D56503C
3CE4B244
BC167A78
BC0A3B90
BD4A7583
3D49AA6C
3CAE0D84
3D1AF086
3B412C20
3C4013C0
3CD841B0
3C586FC0
BC135790
3CCD33A8
3C862030
BD99235F
BD1AFB02
3C361DC0
3D8C9C16
BC90718C
3CA25A98
BCE64982
BD160FD1
BD44454F
BD1E067B
3B0CC1A0
3C330CC0
3D42B1C2
BD8F152A
BD89D637
3C0559E0
3D01B586
BD8DF2C7
BD90A920
3D854458
BCDCB646
BD4F78F8
3D1DE528
BD50F586
3D3046E6
3C00DDE0
BD6AA453
BD48171F
BD3E8114
3CA2F1D4
3D851BA6
BCDA6664
BD5BFDD0
3D2FA800
3D8EC666
3CC3C990
3D8D8FB8
BD2168E8
3CF3C618
BD93CD8F
BD121C6F
3D589AA0
BCCA0C2E
BD32DE64
BD3220A7
BC4A9958
3BA08A70
3D9852AE
3D8F3870
BCFFC4C0
3C9C6004
3D1F9C62
3D8C84E0
BD125103
BD8E043D
BCAAD73A
BD0BBEB7
BCED8574
3D2D37C2
3D876FF6
3D048CDA
3CD5B118
BD72B632
BC252750
3D50BAA0
BD9B8CD0
3BF2A3F0
BCCA584A
BD7227F4
3CD2FEC4
BCCBE814
BCD49C0A
BD5CA8CA
3D10C47C
3C2D0DA0
3BA25D90
3CE4DA58
3D47E35C
BCBB3E76
3BAFC010
3D971E68
BD40E388
BD07DCF3
BD145429
BD934F9E
BD7D18A4
3D628A28
BD2D9278
3D79C2BC
3C407FE8
BA7F8B00
BD431B17
3D8908A2
3BDBC0B0
BC18E268
BD6FAC6F
BCD86086
BCAD2FBA
3C9AA478
3CB559A4
3D842F00
BA0C6E80
3D3DBDE4
BD8A4130
3C95CB48
3CD7C748
3D8CD1BE
BCC8FE94
BC75F5C8
BCCC72A0
3B932B90
BCD13CEC
3D938B64
BCDDEFE4
BD5C9598
3CF10624
BD52B82B
BC5F082C
3AB927C0
BCC2A6F4
B8323000
BD2BF0AD
3CF7F2FC
3D147B12
3D8259AE
3D87A24E
3D4E1E20
3D519D20
BD3F1266
3D064B9A
BCC3E424
3D803E74
3CD8D214
BD95595F
3B2E2280
BC82FECA
BD8DFB2E
BD1C39D0
3C24C4C8
3D918D7E
BCF43618
3D8AF6D2
3D567F7C
3C2803B0
3B984A20
BD124B17
BD8DEF33
BCC6EDD0
3D326BF6
3D591E48
BD6F0F82
BD200BC6
3D05DE88
3D7624D4
BD33731C
3D9607D2
3CCCDF04
BA8A54C0
BD1D74DB
BCBFF26E
38D53400
BC7840D8
BD37D454
3D50BACC
3D955378
3D348814
3C14FE40
BD0CB5DF
BD83B370
3D71A5EC
BD3D6F69
3A7F0C80
3D3A9098
3C593820
3D2A2ADC
BD0F6AEE
3D1EEEF2
BD0EAFE8
BD04F20B
BD0462E3
BD926040
3D107134
3D8CC752
BC946104
BD182A83
3C936748
BC9C6D32
3C88BA70
BD52573B
3C69CE40
3D8DE7E6
3D3E815C
BC6A6D64
BD69D29C
BD93F1D4
BD5EBA16
3B2B8540
3D96580E
3CAFA4CC
BD77B24E
3CD26610
BC1A07C0
BD640756
BD269CC4
3D3C3132
BD4A7EEA
BD699C44
BD7FED8F
BCEEF48C
BD177001
BC62EE9C
BC7DFCC0
3D9512AE
BD36DCFF
BD97340E
BCAFFE4E
3D7D1DB0
BC55E8B0
3CD7B144
3D8F10D8
BD5E32C0
3D939DFC
3CF2570C
BD830AC5
3D4E56C0
BCE5A92A
BD9523F7
BCCF1996
BD3F1F0C
3CDFB784
3CFBACA4
3CFD6D3C
BD4E14F2
3D8CFF98
BCFB5762
BBC89BF0
3D2CD79A
BC9E4746
3D564998
BC31F770
3D0D9D72
BD61AA46
3C01DB80
BCD92D3A
BD898C6D
BD763DFE
BBF0FE80
BD152E27
BC042BB8
BCB7860E
3CA9E668
BD7A9581
3C5A0A88
3C5487E0
BC90F9B2
3D959B24
BC4FF6D8
BD3A76F2
3D2B146C
3CED43E8
BCBD094E
3D9B3514
BC0B4D28
3D1942D4
BD5DAFFE
3D0DE24C
BC880AC0
3B0E58C0
3D8860C0
BD855282
BD177FEF
3D98AE84
BC7879F4
3C54A950
3D2C73A0
BBA839B0
3CD16ACC
3CA2EFF8
3CD92174
BD9A4749
3D82DFF6
3D8D4316
3D14B862
3C3C4DA8
BD2CBA9B
3D6D0A7C
3D846576
BD4BBADE
3D8FCE8E
BBB0DA50
3D0C4DDE
3C12FFB0
BC6147E8
3D8F527A
3D1B33FA
3B89A450
3D65C090
3C8D12B0
3BD27880
3C30F7B8
BD816BB1
BCE52152
BD2A0442
BD4294A6
BD081452
3D300090
BD2F11F3
BCAAF15A
BD5A00D2
BD0C8F0F
BCFA5F6C
BD1667CB
BCF3491E
BD7A7209
BD840A1F
3D29114C
3D44FBDE
3D7683C8
3D6EC914
3CB7A20C
3D638678
BD8238D6
3C1E5DC0
BD5F1FD4
3CA9ABBC
3D29F128
3CC7B908
BC8B8774
BD18EDC6
3BB743E0
3D117CEE
3D776544
3D4E6A2C
3BAD8310
3D61EBAC
3C582588
3A63BF80
3D755A80
3D618478
3CC5B7A8
BD3C6891
3B63DE60
3D15E2F8
BD17EA5E
BD81DD5E
3AA5CA00
BD47C248
3D6408E8
3D1FD48A
BCB5FA84
BD13276F
B9786E00
BC17D0F8
3D093732
3C062730
3D7F4F3C
BD9A35C7
3D051AB2
3AC6ABC0
3D98AF5C
BD69FF72
BBB88000
3D4CB174
BD12914A
3CB1B400
3D2289F8
BBDF84E0
BBCD0AB0
3D9A75F4
BC14CB30
3D1F9CD2
BD6AEB62
3CC1C920
BBEF4780
BCA8E242
BBB28810
3D6AF754
BC7FAEFC
3C642728
3BC9C250
3CD06E5C
BD08B9DE
3A99EAC0
BD9920FF
BD8A3F9F
3D6B2C64
3D973FA6
BD25DD9F
3D24EFB2
3CFC90D0
3D976E72
BD46D3F8
3D5D121C
BD7B0BE2
3CFBACD4
BC22FA30
BB6B1B20
BC8B7CE6
BD8C85BF
3D8BA2F4
3D8DB31E
3C847444
3D5B72B4
3D647798
BA934980
3D8D471A
3762A000
BD4B4BB0
BD85F5C8
3C182190
3D765088
BD1E7F06
3C83BD8C
3C72F640
3D48E790
3D103A58
BC990C1A
BC376328
3D960390
3D851784
BD6DB2E0
3D8301CC
BCB7CFC4
3D941382
BD0800F4
BD5F6718
3D312AC8
3D11AD94
BC4B0888
3D4D7A10
BD885A8D
3D2FBA14
3C457E60
3C95C93C
BD47E06A
BC83F370
3CCDEE48
BD49CB8B
BD3E8D0F
BCCBE086
3D4B78AC
BC8967BA
3D18E49A
3D138B42
3D93D26E
3D68287C
BD414562
3C103478
BD67BE6E
BCE48C5E
3D349C28
BBADA3B0
BD091BF7
3D4F8510
BD82AD62
BD54E156
3CEF308C
3BA60470
BD82AAAB
BD0B4C6B
BD79C904
3B9B37F0
3D295E38
BD155867
BCE43EBE
BD8C52EE
3D57F77C
3D901048
BD55E07C
3D2ABEAC
3B40C2C0
BBAAEF70
3CEA3DCC
BD003F62
3D867A8E
BCF6A960
3D35600A
BCCDB1E6
BD848700
3D1CCBC2
BD724271
3D329340
3CCCE138
3C7DB6F0
BD1C9D0C
BD8DB529
BD3C6B7E
BC906D7A
BD038EC8
BC13AA80
BC0C9340
BD28A01A
BD3C6AB1
BCB34CC0
BC82BF22
BD9A10E5
BC27B680
BD1FA42C
3C92E088
3D5EAB80
BD2D886D
3CFB1F68
3D4E7A28
BD263E38
3C02E9F8
BD8141F9
3D2AE082
BD8299F5
3D82134E
3AF4BC40
3C9FBC5C
3D3126B8
BD897307
3D9203AC
BD5E438E
3D628FA0
3C366760
BD25D487
BBDC2FF0
3C525548
BCB7E146
BD8501F0
BC9457FA
3C0B5868
3D9AD1A8
3D31A2BC
3CEA398C
BB94BF30
3C8B8890
3D143AFC
BCEE9DEA
BD754B81
3C1570B8
BD863BAC
3D320BEA
3D7342CC
BCE40F9C
BD098CDF
BC30FD68
BB047F00
3D465F00
BD1F771D
BD2DD594
BD115CC2
3C1E5A90
BD341D2D
3D8D97A6
3CFBF7D8
BD2D2F7B
3C985CF4
3D6DB6F8
3D53A71C
3D751324
BAFEE480
3BB0A550
BC2A0338
3D66DCC4
3A8C8640
BC23F9A0
3C4963D0
BD8E706B
3BEC25E0
BD6F580C
3C8FD3C8
BCCF32B0
BCC45154
BD6CCC10
3C98BDD4
BCC7827E
BC2D57B0
BD088641
3CE9E8E4
BD99C33D
3D3074A0
BD98FF99
BCA98476
BC8FFA90
BD612C48
3D81CAF2
3CF3F668
3D42EF60
3CBE1E3C
3C32D308
3C91789C
BC256080
3C0BE9B8
BD8B3F12
3D309A56
BD08C1FE
BB17CCE0
BD800E40
BD14E8C5
3D5F86BC
3D8DAF5A
3D19CF70
3D9231EE
3D7D566C
3C2D68A0
3CAC065C
BC52CD38
3D0A1CCE
BD676789
BD596075
BC92471A
BCB0B3E0
BD8BD492
3C146310
3D91F0C2
3CFACBA0
3D5115BC
BC8F171C
3D2D17AC
3BB1E2D0
3C445550
BD2A8BCD
3D9250E2
BC9C7080
BC81D2FE
BD09B67F
3B995FD0
BCCB5D3C
BD641338
BB2D2EA0
BD426BC4
BD66EB46
BD5293CE
BD0F35EE
BD1AEA47
BD3E25E0
3C98C0CC
BC84EDFA
3CD11C14
BD89B75E
BC9C3CD0
BD8E45E9
BC340E50
3D95C01A
3D80BD00
3BE66AE0
BCA3F5B4
BD24B2E9
3D86D302
3C8F1D6C
BD2FF346
BD20CAE1
3C12E120
BD520965
3D4D765C
BC6F9324
BD899B4D
BC4AA718
BC3FD968
3D6C7854
BD28DE3C
BC437980
3C8591B4
BCB160F0
BD484F0B
BD9B461E
3B0CF400
3D798984
3D1111A8
3CB7B5B8
3CDF01FC
3CD7B6E0
BC1CA768
BA369280
BD3D8068
BC89DEC0
BD950BCB
BD5B3AB4
3C218780
BD1FC0FF
3D519790
3C0DAF60
BD14FB0E
BD961DA9
BD835F08
BD937944
3D8D3C0A
BD50AB26
BCF1026C
BD952024
BB1009A0
BC2CCA30
BBCF1410
BD40DB2D
3D3F6372
BCC27F30
3CB33CB0
3C9D6984
3CD78B84
BD45AC50
3D54E3F8
BD236268
3B68DA20
3D949A10
BC73714C
3CE74BE8
BD4D00C6
BA16DE00
3D980340
BC045DF0
BB191DE0
BBCB24C0
3D6A2B94
3D90E062
BD4CF68A
3BD5A710
3CA107F4
BD1CAB93
3CCAB554
3BBA09E0
3D82D3F0
BD20A397
BD8B7FF9
3D61D4FC
BD68BAEC
BD70FACA
3CE4AF64
3D763168
3D608104
BD0CC73F
BD66AB7D
3D8D4348
3C899180
3D93FBF2
BD6497C4
BD8F9753
BD11BE9C
BD28E0C3
BD6B3D90
3D711A10
3B5EF9C0
3A781C00
BD9506AB
3D01D892
BC69BFE8
BAE6CB80
BD82F974
BD62038F
BD108DD1
BD37F4EE
3C050DB0
BB7D2660
3D09BDFE
3C1EA6D0
BD7B85D4
BC11A798
BD679198
3D27D6FA
BD1FC39E
3D615248
3D3E780A
BD5796CA
3D7E72B4
BD55FEE8
BCD6FB92
3CA90B28
BA96D240
BC39E998
BD9AD25A
3D2B7086
BD93F3B0
BC785448
BD52DF18
3BF8E4E0
BD49AE6F
BD4E6D3A
BC5E6DE8
3D2F1034
3D41FDF8
3D949E78
BD1A8E20
BD4E6823
3C820330
BD1FBDAD
3D2851DA
BCDB158A
BBFF51D0
BD901184
BD76CADA
BD47AD8B
BD8D36B1
3BAFE9D0
3D27D976
BC9C2F84
3A5E0F80
3D293F58
3A673300
BCF94920
3D54C468
BD999594
BD715174
3D040284
BC88C3B4
3D701880
3C0984F8
BCD55F06
3C9B21A8
BBC731A0
BC2B0198
BCF74832
BD963E48
BC96EB6C
BD60C56B
BD94539A
3CB3131C
BD7368CE
3D0E193A
BD02EE36
BD043978
BD9A72EF
BCC00E6C
BD590B85
3D8C88A6
3BF8B970
BC8D085C
3D998434
3CEE47F8
BD972E52
BD9021AD
BC0E4CB0
3D24732A
3B012640
BC883D1C
BD562CF4
3BC4FF40
3CD94384
BD69DF08
3C2EC408
3D95B052
BD0C69F9
3D0888EE
BCAA3FCE
BD45ABFE
BD35863A
BCA14A56
3D4130DA
BC0F6410
BD710A22
3CD419F8
BD514512
BBBD1D10
BA83F7C0
3D8410DC
BB17E320
BD271C72
3D966B50
BD426404
BD2A9569
3D9279F8
3B9D8C80
BD116EBE
BC3A54A0
3C933620
BD6CD127
3D68ED20
BCDA6A44
BC0FACA8
BD79A52A
BD063E2D
3BB7BCA0
BB47C560
3D751F60
3C16FB38
BD88F11B
3C9C1564
3D039162
3B2681E0
BD2A1A66
BD2250B8
BD2C6629
3C4E0118
BD080B44
BC6D4988
3CDED31C
3CFA3084
3D8CC14E
BC98E6C4
BD265488
3D90F80E
3CB234D0
3D526C84
3C87ED20
BC34C5C0
3D82CE4A
3D73F0F0
BD6578B0
3D7E788C
BD0075C9
BD247BF0
3D0EFFD4
3D1FFEB6
BD827CF6
BCB490D0
3CB979CC
BCF6C95A
3D11C97E
BD63EB8E
3D99BA04
3D51E244
BC093B28
3D48BCD6
398D3400
BCE8C700
3C8F8A74
3BCDE9B0
3D0B7650
3D88457C
3D61C9D8
BD30DDCE
BB974C40
BB7B42C0
3CA110C4
3D843A94
3C3060A0
3D59C5EC
BC9701C2
BD8D5C96
3D8442C2
3D1B8DEC
BCA36CD4
3D8407FE
3D2F9776
BD12BFF2
3D609B6C
BD6F1556
3D490D9C
3D1C9F9C
BD80696F
BCA4A39A
3D49C0E8
3D44A24C
BD951558
3D9856B4
3C210188
3D66D168
BD5FD0B6
3C5A50D8
BD6426AF
3D93CAEE
3BCF1480
3D3FDB44
BD0A92D3
3D5C2114
BC902314
3D3CB092
BCABCCCA
BD383248
BD42DBCC
BD0DBA7F
3D3A3BDA
BCBC1A2A
BBF2A370
BD49FFBE
3D483C26
BD85016C
BC1127C0
3C98EAAC
BD6AF8E6
BD8B2E46
BC368C98
BD41B88C
BB970A50
BD41E068
BD1D1156
3CD55040
3D888D40
3BB766A0
BCCBBAE2
BD9A6925
3D6BCBC4
3D4E1940
BD942219
3C5ECA80
BD93741F
BB8D5210
BD960113
3D174286
BD98D289
3CE7E888
BD7FC2F7
BCDA75D8
BCA7C5E2
3D0D5CAC
BD13526D
3D8F0E4C
BC6189C4
3B85DE10
3D0682D2
3D69A970
3D2D98E8
BC96418C
3D2C9DA0
BD766327
3AD8BD40
BD04ABB0
BC80C516
3B528C20
3C26E7C0
BD59C1C6
BD5459DE
3D90336C
3D0C777E
BD9303D2
BD419F10
3BA01460
3D5B19D4
BD25EB6D
3CF46B90
3CB21D58
BD0D84DA
3C583728
BC636F6C
3D6D1E40
BD680E5F
3D6487B4
BCA8B9A0
3D2DCCB0
3C545A60
3C4CCF48
3D167AB0
BC2132F8
3D776ABC
BD64081C
BD4C516E
BD4DFD22
3D207D7C
3D8F3B8A
3D193EC8
3C2918D8
BCBC6BC6
3C1E9350
3C97D934
3C616620
3CB85B9C
BC834C90
3D4C96C8
BB858E00
3C39AD98
BD802B37
BCBAE6F6
BCA0D1D4
3D67D404
3D15B710
3D3CA254
3D75BD3C
3D18A05C
BD4122DC
BD5F68A2
BC2DD170
3C206360
3D95075C
3D05C4EE
BD812EC9
3D06CCE0
3D943E7C
3D3FF1E0
3D49B788
3CDDA1A8
BD1F10B9
3D5A867C
3C01C9F0
BD4B7E1A
BD1EA403
BD923D41
3D61134C
BC049BD8
BD2881FD
3D3C1B3A
BD4A37CC
3D13A4F8
BD6B7140
BCB80D72
3D9A6E78
BC4872C0
BD7F09D8
BD439111
3D176FF2
BD6AFE1F
3A0DA580
3CA4EDF8
3CB1FE04
3CD62A28
BD61715D
BD40B736
3C165568
BD11E02E
BD20BFE2
3D8B8A2A
3D87EDCC
3C211868
BCB5DB60
3D592674
BC927928
BD81D0C7
3D314E98
BD70D680
3C8FD090
BD4BB68E
BD4E948E
BCB68786
BBA7D870
3CE6F47C
3D794960
3D4E22B0
3D73EA3C
3B2CCD00
3D1F16D6
3CFA307C
BC15B928
3C1BB150
BD2CA15A
BD6591AD
3D2366BC
3D89DD30
3D35BC7A
BD622FC4
3D004704
3C3DFE88
3D275D80
BBD89DB0
3D8499B8
BD03A5C2
3CFBFCF8
BC1F8A38
3D8AB176
BCF03F24
3D69F1F0
3D6D3594
3D18A908
3D536578
3D1E59D8
BD356D9E
3CEEF4A8
BD8BB56B
BD51F6B1
BD93C081
3C790338
BC06F530
BBA3A5D0
BC5E2B5C
3CAC3FF0
3D23DB28
BD93612E
BD09105C
BCB35B1C
BC8C1C68
3D2F33DE
3CB9C2C4
3D85E6BA
3C884AD0
BD037B3D
BD3A973E
3CEE9D64
BD172C40
BC4B1958
3D8029DA
3D034432
3CC25544
3D1B7F3E
BD5A6A12
3D9A28FA
BD45B18E
BD7C7630
BD41A926
BD814ADA
BD78C478
BD922D25
BAC02FC0
3C76B700
BD6D2A0A
3C3ACE28
3D285090
BD1C2549
3B872670
BD76B7CA
BC4E7D58
BB876810
BD5670E0
3D116F68
3D3C6C1E
3D89DFC2
3D5BB7EC
BC99BC34
3D97A96A
3B4E0160
BD4E597A
3D8342A0
3D39C8EE
BD798265
BD735C07
3D95088A
BD4A7583
BC77E550
3D16B420
3D64DA00
3D11C0B8
3C864048
BD353B08
BD5314E4
3CC02168
3CCE5710
3D83847C
BC4AF8E8
BD3640B3
BC9AE21C
BD260095
3AFB5580
3D8F1CF6
3D9AB476
BD9B0A5E
BD485BA2
BD289BDE
BD03AB4D
BD5E3410
BD90FEA6
BB18A9E0
3D0FF618
3CA53708
3D985AF4
BB5D35A0
3D497DB4
BCE0AE84
3CDCC8C4
BD912DDB
3D4F249C
BAA12580
BD3DB85E
3C9864D8
BC8798B4
3D7290B8
BD7170C9
3D8796BA
3D32EC7A
BD429012
BD69892E
BD87A4CF
39941600
BD8D2090
3C324D10
3C8910FC
3D247CAE
3B9D7FC0
3C4803A0
BD53083A
BD71CCC0
3D3AD3F4
3D34E12E
3B4CE2A0
BD058FEF
3B9E1310
BD54A7E0
BC4C0060
BD6F5696
3BAF42C0
3D92B390
BC427900
BCE07E36
3D5257EC
BA130580
3D728E30
BD80EB5D
BD8AAE04
3C666EF0
3D0A23B4
3D00B244
BD8921F4
3D2302E4
BCA879F0
BB949100
BC9F6E2A
3CB3E170
3D23C55C
3D3EFECE
3C6CBBC8
BD93908C
3D2D6A68
BCA68E16
BD2F1237
3D24B910
BD7EC706
3D35E332
3C9F01D0
BD934C0E
BCD19340
BD2B1B74
BD13E032
3D64C89C
BD3D526E
BD5C5C26
3CB0F8F4
3D9139C4
BD598374
3D8AA548
BD812828
3C237880
3D88088C
3D3F3614
3CD550C8
3CB39D08
BCDBC8A6
BD942D8C
BC79F804
BCDB0DC2
BD870CE6
3D42363C
BBC3B800
BD2FC446
3C9DFAAC
BC93DE38
3D7118CC
3D7ED3FC
3D53DCC8
3D993D14
BD76332B
BD7441FC
3CC98FCC
3C824038
BD9A8FF7
3CBCD328
3CBBAE88
BD1EB263
BBC6D930
BD877C51
BD9B01D0
3D77EEBC
BC92D810
3C1E55C8
BC4A0E20
3C614C78
BD75CF9C
BD6F5272
BD8FC40D
3D2CE0D0
BD6CB2BC
BC3F5D98
BD3D917E
BCE1F9E0
3CAC4320
BBB98CE0
BD824902
3D6D3B30
3D803992
BD6DAB2A
BD20891F
3D01F616
3D5975A8
BD25B3AD
3B068500
3D26A13E
BCC5EB12
BD4F0AD6
BCB04566
3D914892
BD89439F
BD5B8D0A
3C9FED04
BD3CE3F0
3D422FEE
3D71A2DC
BCFC05DA
3C6B31B8
3D4807D2
BC93E412
3D610500
3D069794
3D8320D4
BD1070B0
3BA61AA0
3C3322B8
3D5F8C54
3D1265EC
3D618AE4
3C55AEC0
BD173718
3C8B8EAC
BC18E7F0
BD7D4B2B
BC55FB28
3D646118
BC24FB78
3D5B0200
BB8D5820
BD3F986C
BCDED0AE
3BC6E4E0
3C97F3F8
3BC27D90
BC8262B2
BD903B29
BD671824
3CC157F4
BD2F7A6D
3C037288
BD0BA7A4
3D3FD110
BD347561
BD1CAE67
3D2410C4
BD5DF2A0
3C39E178
3CECF05C
3CC9B4CC
3D8BAA90
BD7941D5
BCAB0C16
3D3F9012
3C562BE8
BD96D3E3
BCC0AF42
BB0F71C0
39AEFE00
3D6F6E28
3C5B1978
3C376030
3D894444
BBEDBEA0
BCE95C2E
3D609C98
3D5DEE24
3AE192C0
3D84E7F6
BD8DE06F
3D09D488
BD089520
3BA720A0
BC964470
3CDB1724
3CD9D58C
BD7A9E1B
BD150A3A
BBA5FC10
BD1B44FD
3D60E270
BD3D4714
3D6266EC
BC34F798
BD1ACE14
3D1DE814
3B85B380
BC855E82
BD515DF2
BCB2A056
BD6505B0
BD8535AC
3D23B73A
BB801EF0
3D151542
BCD3E0DA
BD9A373B
BC0E8850
BD8BA569
3CCA3908
3D28A664
BCACF23E
3D1E6F6A
3C55A4B8
BD33B505
3D862B5C
BCCDDB6A
BCB0A57C
BD430F25
BD9009B2
3C4148D0
BD2A7A63
3CBD66A8
3C4C3A90
BD17AB84
3D85BB8A
BD9357BE
3CDB41C0
3D988C24
BD4C3112
BD8342A5
3D3AEE54
BD8716C4
BD3466F2
3CC12A4C
3D1D75CA
396CA400
3D811B3E
BD6FEA9A
BD384360
BD098CE4
3D618738
BD6BF388
BD0C9E54
BCF57C66
3D406334
3D400EA6
3D55CB54
3D80E6D2
3CAE2F0C
3D81CBC4
3D8A58A6
3CFAC050
3B041620
3D87764E
3D0E1A98
3D7DF200
BD221098
BC8BC786
BD9131E7
BD955DAA
BCE3F7C4
BD7EC987
BC504B28
3D556468
BD383C54
3C9A82DC
BD03EFD0
BD3CE818
3D47572A
3C7B31B8
3D720120
BD67BB20
3CC9828C
3D2B3850
3C8DB118
BC691F08
BC260948
BCF42942
3D274C16
3D2D24B2
3D443F14
BB888400
3D52D280
3D43D0F2
3D96BE84
BB2748A0
BD5D10C6
BD3594F2
BD09552D
BCD5023E
BC7D8534
BD76FDFD
3D47F51C
3CA49F0C
3D5B0B40
3D980D9C
3D4AC204
BB92B1C0
3D0F87EC
3C441C70
BD738BFA
3C0DD900
3C9C276C
BD5F31BC
BD829E62
3D78EEA8
3C7B04F8
BD81C670
BC875B72
3D662B90
3D34319C
BD871596
3C01D3B0
BC86FD7E
BD869BD7
BD30FD9C
3CDF93F8
BD7623AC
3D7C7D24
BCFBA1F8
3D703284
3D841D96
3D8296CC
BD98BA19
3D960C42
3CE2F93C
3CAA7218
BD3D8C54
BD594EE4
3D365102
3D8D5CEA
BD88081F
BB359C00
BD8140FF
3D541DA8
BD5A9E9E
3D9A06C4
BC88E94E
3D33530A
3C944130
3D357CE8
3D83AF38
3D25ED88
3CA06460
BD9334A2
BCF698F8
3D6C4B88
BD163BC7
3D1BC512
BC86576A
BC5EEF08
3C8DF5E8
BA0E3C80
BC732F10
3D4E79F8
3D3A48B4
3C403C60
BD737693
BCF6B75A
BD896F1B
3D4E09D8
BD630850
BD8AD181
3D89B35E
BC9D1032
3D333C46
BD76EB36
BD8C795B
3BCAD410
3CBBA808
3D636150
3D9B3C82
3D774390
BCEB3CFA
BD44FF75
3D0D0002
BD7DE7CA
BD18E316
3D9557C0
BD242584
3D0BE652
3D87D3A2
BC013E20
BCEB08A4
3D25A032
BBA71410
3D4B5338
3CCD8280
3D82232A
BBFDBA30
BD375CD4
BC0238F0
BD7B9575
BBA71C40
3D0181FC
BD9B3EAC
3D130904
3D666950
3D90C316
3D885530
3D8528D0
3D06016E
BC33C558
BD857CD0
3D8FE90E
BD2D7CD8
3BC20430
BBD8A500
BD5A566C
BD2A530B
BC702E04
3BF54F60
3B5B2500
3A8768C0
BCD10B84
BC04D088
BD12526B
3D75DCEC
BD882DD0
BC0F46A8
3D8D1082
BCABFD7A
BCF450CC
3D42E012
3D279BA2
3B8B1C00
3D103BA2
3D825A7E
39A40B00
3D45797A
3C7C97A0
BD03D9C4
3D3A58C0
BC2DE970
BD27D3F9
BD8DF97D
BD10371D
3BA86E90
3C65ED70
BCF6557C
3C84003C
BCADC650
BD3FDD33
BD7B0885
BC71B714
BD58A57A
3C924AF8
3D321FF8
BC03F270
BD903436
BD0403E7
3D747B28
BD95EC7B
3A6EEE80
BD9AAD4B
BC5D8064
3CB51B48
BD44EA92
BD952A65
BD0AD433
BD775E43
BD1A3CF2
3D12EFCC
BAB2B600
BD84D263
BD6AC45C
BCF772CE
3C9B86E4
BD75EDF4
BD089A2D
3D98CC9E
BD18464B
3D553A98
3B4500E0
BD6A8322
BCDD380A
3D46D8E4
BD47B9C6
BD012B3E
BD63202A
BC96C4F4
BC827938
BD2E89A6
3D1144FC
BC96A41A
3D978ED6
BD3600A6
BD9AA903
3D0D2006
3CB76F58
BCC6DA8E
BC5E571C
BD679DF5
3D40A8AA
3D73DFE0
BD8C8278
BB3C0620
3D7EDEDC
3D63C2C0
BCD17F80
BD7ED6F9
3CDF23EC
3D30DD24
BC04F758
BD8B52EA
BD13FAF4
BD62DBE6
BB32D180
BD8D3862
3D777F54
3C917418
3CFFF79C
BD4E0848
3D007CF2
3D094028
3D690D2C
BD865B11
BCE5A51A
BD768B7C
BA7F2C00
BC828652
BC544C50
BC2D0938
3CCEEAFC
B9D45A00
3D2FC0A0
BCE6E6BC
BB79EFA0
BCCD352E
BD008E2B
BC02A858
3C37A588
BD7757FA
3D4CC11C
BB5EB6E0
3C316258
BC24B8F0
BD964F08
BCE5AAFC
BD995E88
3D1BD5B4
BCED2CA0
3D3D0490
BC36D7B0
3D8306BE
3CA8FB84
BBF2C030
BD701342
3D062D5A
3CC6B7D0
3D81220E
3D97E59C
BD2A86BB
3D88EF72
BADFBC80
BD918384
BCE07438
3C165DA0
3D177896
3D25D8F4
BD47F835
3D838B5A
BD9920DD
BD9677FB
3CB32A58
3D075D3C
BC658DE4
BD065D48
BD8A3462
BCE92E88
BD23A615
39A24F00
BD68AFF2
3C237908
BC4550B8
3D2D8FF2
BB61BDA0
3D8E7BA6
BD23BB1F
3D6762D0
3D89C88C
BD87A2FD
BD82F2AE
3CABA260
BD865388
3D860DE4
3A941EC0
3CAE2C84
3BA55FE0
BCCD5DE4
3CE9099C
3D462DF8
3BF377B0
BD0D4715
3CBC2D88
BD12C4A8
3C03F988
BC392750
BD6C1272
3D1E5C72
3D679610
BD378516
BD0B81F3
3BE62C40
3CCAA120
BBEF2BD0
3CB91F74
3D3C41EC
3D97BA0A
BD91D83C
B934B200
BCB52C86
BC86B868
BD09D94D
3D0779D8
3D879094
3D10B6E4
BB910E00
3D8BB760
BD62BDFE
3B569A00
3C963A24
BBD155C0
BC61152C
BCFC73E0
BD8D9C1F
3BA73D10
3B949C90
BD2BC8BA
BD93171D
BC0B5F18
3D799214
3D80FC96
BD046878
3CD19200
3C639D38
3CB10A14
3D8B7C30
3C1DCA30
3CC3E9B0
BD8D0C76
BC82359E
BD98FF46
BD5D615C
BCA0B3D4
3D8C878E
BD65DC88
3D2FC18A
3D47A32C
3D636364
BD26DAE0
3C200D30
3D0AC092
3D4EF060
BD00D282
3D48F8D4
BD2C35AF
BD2295B5
3D6CF0C0
BD2D3FB7
BD705E18
BD64F51C
3C91C750
BD728535
3D45851A
3D52FF0C
BD2AA8A5
BCE43FBC
BD30F356
3D8061A8
BD982F1C
3D3E54A0
BA92FC40
BCED24A6
3CE719EC
3D7DC620
BBC84940
3D91F156
BCC6EA22
3D72E5A0
3CCF42FC
3D34FF1A
3D867FDE
BD453262
BD2997E3
BD553ADE
3BEDF3F0
BC941394
BD95AB1C
B9F96100
BD2F06D3
3D6B56AC
3D5D7564
BCD4B6DA
BD861015
BD2BA02A
3D6377B8
BD8A1F9E
BCE3E2A6
BB9662F0
BCCD46EA
BD015A39
B9DA2700
3D4CFB3C
BC663BC4
BD4C3191
BCB3BFB6
3D6B7FE0
