3F9A76B0
BE2E84D2
BF9FC80C
BEB2DE65
BFA65EB8
3F1DE315
BFA8F903
3FA4A620
3F935445
BF2121A4
BFADE6E0
BE92B81A
BFAC56A7
BCE0C7C8
BF8F3551
3FB11982
3F476582
BD041CA2
BFB620F1
3EED2A93
BEEE0983
BEB862D5
BFBEF3B5
3FC26926
C02A965D
BEE806A3
3F13E5D7
BEA8133F
400C847A
BF6618FE
3FD1063F
C0432F87

