BFED3974
3F81507C
BF5165AA
3FC81A5D
BF6B8397
BF81F3D5
BF6476BF
4001BDB6
BF959EF6
3F75C1D9
BF6C6826
BD4C4EF9
BF6E8275
BF7175FF
BD864256
3FB665AA
3F6E69EB
3DACD501
BD9A7E70
BE9C20D1
3F7674F6
3EE80A8D
3F550AF4
BD1AAC40
C01068EC
3F2A56D0
BFA0C0FF
3FFB8463
BFA4E2E1
BE54CA41
BE58E5D5
401D93A6

