BF04DDDB
BE884F0A
3F477311
3F06D5AB
BF884483
3F5666EE
BF74EDD9
BF7C8AEB
BDE4F946
BEA72AF6
3F897BC6
BE235759
3F8EB76D
BF715DC4
3EF32F36
3F5EA316
3E087F38
3E361BC0
BECBE510
BF0E6707
3EB345DE
3D19DE07
3E9AA9BD
BC0C37CC
3E7DFD1D
BE4CF502
BF49D56A
3EECD3D1
BF1C7F56
3F39ADF7
BF1B0965
3E847241
BD8E9CCF
BD8B7FA8
BC6802EE
3EFF168E
BEF6186F
3F10826E
BF69FDBE
BF0A37F0
3EA9B1F4
BE1B29CF
3E8200E7
3E16081C
3F096C7A
BF2DFF49
3E7E13C6
3F2FD499
3F0D49D2
3F1D2B98
BEA8F570
BE7CE169
3F854FF1
BEF3FFAD
3F6A2999
3E3ECD82
BF3C4336
3E52B1F3
BF8323AB
3E97803D
BEDD0820
3EDF3A1E
BF469A16
BE4F02BA
BEDC55EF
BD2AC28A
3F279B9D
3F0E9DBA
BF1FD2A9
3F2272C2
BF370E27
BF393CB1
BE1FD6E4
BEBADFF9
3F70E1C7
BCDDBA62
3DB16F00
BF1DAABA
3E97FC51
3F198018
BE9A5491
BF1E4A3C
3F32CE53
3E552E15
BEC81EE7
3E2EDB1E
3D1522A7
BEEE6545
3E6993AF
BE8EC5FB
BB4BB382
BDBFB548
3F42E8D8
BE3DED50
3EDD4D53
BDCE9951
3DBF2441
BE02DB2A
BDA12B6C
3D086314
BD5A977D
3E8BACAF
BF2AFA5C
BF123027
3EC451AA
BEB6425B
3F474326
3E8B6731
3EDBCF38
BC74FB28
BE900F35
3E8A7DAF
3F208996
3F600A82
BF4801FF
3DE5EF91
3F936414
BF8D286C
3F47EFC3
3F0F7D93
BE869EB0
3EF80D44
BF9B4163
BDC15689
BF8CC9E6
3F7D4C13
BF21864E
BEBA18AB

